TRT-8601-EntropyCalibration2
onnx::Concat_0: 3d16bcb4
onnx::Concat_1: 3d00af63
onnx::Concat_2: 3d2a58c2
onnx::MatMul_3: 3d5537fd
onnx::Concat_4: 3cf7b445
onnx::Div_5: 3c05f10f
onnx::Sub_6: 3c60813e
onnx::Mul_7: 3c1ddd6a
/control_model/Concat_output_0: 3d16bcb4
/control_model/Concat_1_output_0: 3cf7b445
/control_model/Concat_2_output_0: 3d00af63
/control_model/Concat_3_output_0: 3d2a58c2
(Unnamed Layer* 4) [Constant]_output: 3b233d7f
(Unnamed Layer* 5) [Shuffle]_output: 3b233d7f
/control_model/control_model/input_blocks.1/input_blocks.1.1/transformer_blocks.0/attn2/to_k/MatMul_output_0: 3da3b229
(Unnamed Layer* 7) [Constant]_output: 3a6c4d48
(Unnamed Layer* 8) [Shuffle]_output: 3a6c4d48
/control_model/control_model/input_blocks.1/input_blocks.1.1/transformer_blocks.0/attn2/to_v/MatMul_output_0: 3d0effb8
(Unnamed Layer* 10) [Constant]_output: 3b470c52
(Unnamed Layer* 11) [Shuffle]_output: 3b470c52
/control_model/control_model/input_blocks.2/input_blocks.2.1/transformer_blocks.0/attn2/to_k/MatMul_output_0: 3d91ce9b
(Unnamed Layer* 13) [Constant]_output: 3a966e88
(Unnamed Layer* 14) [Shuffle]_output: 3a966e88
/control_model/control_model/input_blocks.2/input_blocks.2.1/transformer_blocks.0/attn2/to_v/MatMul_output_0: 3d0f33e7
(Unnamed Layer* 16) [Constant]_output: 3b058cff
(Unnamed Layer* 17) [Shuffle]_output: 3b058cff
/control_model/control_model/input_blocks.4/input_blocks.4.1/transformer_blocks.0/attn2/to_k/MatMul_output_0: 3db30950
(Unnamed Layer* 19) [Constant]_output: 3a95aca2
(Unnamed Layer* 20) [Shuffle]_output: 3a95aca2
/control_model/control_model/input_blocks.4/input_blocks.4.1/transformer_blocks.0/attn2/to_v/MatMul_output_0: 3da4c870
(Unnamed Layer* 22) [Constant]_output: 3b0158a6
(Unnamed Layer* 23) [Shuffle]_output: 3b0158a6
/control_model/control_model/input_blocks.5/input_blocks.5.1/transformer_blocks.0/attn2/to_k/MatMul_output_0: 3dc0498c
(Unnamed Layer* 25) [Constant]_output: 3a962849
(Unnamed Layer* 26) [Shuffle]_output: 3a962849
/control_model/control_model/input_blocks.5/input_blocks.5.1/transformer_blocks.0/attn2/to_v/MatMul_output_0: 3d9f5de2
(Unnamed Layer* 28) [Constant]_output: 3af60e58
(Unnamed Layer* 29) [Shuffle]_output: 3af60e58
/control_model/control_model/input_blocks.7/input_blocks.7.1/transformer_blocks.0/attn2/to_k/MatMul_output_0: 3dab4a4d
(Unnamed Layer* 31) [Constant]_output: 3a9c13e4
(Unnamed Layer* 32) [Shuffle]_output: 3a9c13e4
/control_model/control_model/input_blocks.7/input_blocks.7.1/transformer_blocks.0/attn2/to_v/MatMul_output_0: 3d1e2a29
(Unnamed Layer* 34) [Constant]_output: 3af11985
(Unnamed Layer* 35) [Shuffle]_output: 3af11985
/control_model/control_model/input_blocks.8/input_blocks.8.1/transformer_blocks.0/attn2/to_k/MatMul_output_0: 3dad4313
(Unnamed Layer* 37) [Constant]_output: 3aa75dd0
(Unnamed Layer* 38) [Shuffle]_output: 3aa75dd0
/control_model/control_model/input_blocks.8/input_blocks.8.1/transformer_blocks.0/attn2/to_v/MatMul_output_0: 3d1b9bad
(Unnamed Layer* 40) [Constant]_output: 3ad09cf4
(Unnamed Layer* 41) [Shuffle]_output: 3ad09cf4
/control_model/control_model/middle_block.1/transformer_blocks.0/attn2/to_k/MatMul_output_0: 3d8b610a
(Unnamed Layer* 43) [Constant]_output: 3ac9a451
(Unnamed Layer* 44) [Shuffle]_output: 3ac9a451
/control_model/control_model/middle_block.1/transformer_blocks.0/attn2/to_v/MatMul_output_0: 3d135e12
(Unnamed Layer* 46) [Constant]_output: 3b27476a
(Unnamed Layer* 47) [Shuffle]_output: 3b27476a
/control_model/diffusion_model/input_blocks.1/input_blocks.1.1/transformer_blocks.0/attn2/to_k/MatMul_output_0: 3d9ff996
(Unnamed Layer* 49) [Constant]_output: 3a8be35e
(Unnamed Layer* 50) [Shuffle]_output: 3a8be35e
/control_model/diffusion_model/input_blocks.1/input_blocks.1.1/transformer_blocks.0/attn2/to_v/MatMul_output_0: 3d056dd4
(Unnamed Layer* 52) [Constant]_output: 3b37a1d8
(Unnamed Layer* 53) [Shuffle]_output: 3b37a1d8
/control_model/diffusion_model/input_blocks.2/input_blocks.2.1/transformer_blocks.0/attn2/to_k/MatMul_output_0: 3db1983a
(Unnamed Layer* 55) [Constant]_output: 3a54b2c8
(Unnamed Layer* 56) [Shuffle]_output: 3a54b2c8
/control_model/diffusion_model/input_blocks.2/input_blocks.2.1/transformer_blocks.0/attn2/to_v/MatMul_output_0: 3d1d6d2d
(Unnamed Layer* 58) [Constant]_output: 3b04b0e5
(Unnamed Layer* 59) [Shuffle]_output: 3b04b0e5
/control_model/diffusion_model/input_blocks.4/input_blocks.4.1/transformer_blocks.0/attn2/to_k/MatMul_output_0: 3d99a472
(Unnamed Layer* 61) [Constant]_output: 3a92b3b8
(Unnamed Layer* 62) [Shuffle]_output: 3a92b3b8
/control_model/diffusion_model/input_blocks.4/input_blocks.4.1/transformer_blocks.0/attn2/to_v/MatMul_output_0: 3d952149
(Unnamed Layer* 64) [Constant]_output: 3b0727e7
(Unnamed Layer* 65) [Shuffle]_output: 3b0727e7
/control_model/diffusion_model/input_blocks.5/input_blocks.5.1/transformer_blocks.0/attn2/to_k/MatMul_output_0: 3dc062f9
(Unnamed Layer* 67) [Constant]_output: 3a926ffe
(Unnamed Layer* 68) [Shuffle]_output: 3a926ffe
/control_model/diffusion_model/input_blocks.5/input_blocks.5.1/transformer_blocks.0/attn2/to_v/MatMul_output_0: 3d9aad42
(Unnamed Layer* 70) [Constant]_output: 3aeb443c
(Unnamed Layer* 71) [Shuffle]_output: 3aeb443c
/control_model/diffusion_model/input_blocks.7/input_blocks.7.1/transformer_blocks.0/attn2/to_k/MatMul_output_0: 3db06897
(Unnamed Layer* 73) [Constant]_output: 3a9ff90a
(Unnamed Layer* 74) [Shuffle]_output: 3a9ff90a
/control_model/diffusion_model/input_blocks.7/input_blocks.7.1/transformer_blocks.0/attn2/to_v/MatMul_output_0: 3d213aae
(Unnamed Layer* 76) [Constant]_output: 3b06006a
(Unnamed Layer* 77) [Shuffle]_output: 3b06006a
/control_model/diffusion_model/input_blocks.8/input_blocks.8.1/transformer_blocks.0/attn2/to_k/MatMul_output_0: 3dacd6e9
(Unnamed Layer* 79) [Constant]_output: 3aa0ccba
(Unnamed Layer* 80) [Shuffle]_output: 3aa0ccba
/control_model/diffusion_model/input_blocks.8/input_blocks.8.1/transformer_blocks.0/attn2/to_v/MatMul_output_0: 3d14da4f
(Unnamed Layer* 82) [Constant]_output: 3ad8de3f
(Unnamed Layer* 83) [Shuffle]_output: 3ad8de3f
/control_model/diffusion_model/middle_block.1/transformer_blocks.0/attn2/to_k/MatMul_output_0: 3d9a495b
(Unnamed Layer* 85) [Constant]_output: 3ac1fd46
(Unnamed Layer* 86) [Shuffle]_output: 3ac1fd46
/control_model/diffusion_model/middle_block.1/transformer_blocks.0/attn2/to_v/MatMul_output_0: 3d0d638c
(Unnamed Layer* 88) [Constant]_output: 3b10281a
(Unnamed Layer* 89) [Shuffle]_output: 3b10281a
/control_model/diffusion_model/output_blocks.3/output_blocks.3.1/transformer_blocks.0/attn2/to_k/MatMul_output_0: 3d8e0ba2
(Unnamed Layer* 91) [Constant]_output: 3acf0355
(Unnamed Layer* 92) [Shuffle]_output: 3acf0355
/control_model/diffusion_model/output_blocks.3/output_blocks.3.1/transformer_blocks.0/attn2/to_v/MatMul_output_0: 3d171aa5
(Unnamed Layer* 94) [Constant]_output: 3b1f383e
(Unnamed Layer* 95) [Shuffle]_output: 3b1f383e
/control_model/diffusion_model/output_blocks.4/output_blocks.4.1/transformer_blocks.0/attn2/to_k/MatMul_output_0: 3da8a813
(Unnamed Layer* 97) [Constant]_output: 3ad97bfe
(Unnamed Layer* 98) [Shuffle]_output: 3ad97bfe
/control_model/diffusion_model/output_blocks.4/output_blocks.4.1/transformer_blocks.0/attn2/to_v/MatMul_output_0: 3d29616f
(Unnamed Layer* 100) [Constant]_output: 3b1dba89
(Unnamed Layer* 101) [Shuffle]_output: 3b1dba89
/control_model/diffusion_model/output_blocks.5/output_blocks.5.1/transformer_blocks.0/attn2/to_k/MatMul_output_0: 3d98a04b
(Unnamed Layer* 103) [Constant]_output: 3add1573
(Unnamed Layer* 104) [Shuffle]_output: 3add1573
/control_model/diffusion_model/output_blocks.5/output_blocks.5.1/transformer_blocks.0/attn2/to_v/MatMul_output_0: 3d30f37d
(Unnamed Layer* 106) [Constant]_output: 3b247906
(Unnamed Layer* 107) [Shuffle]_output: 3b247906
/control_model/diffusion_model/output_blocks.6/output_blocks.6.1/transformer_blocks.0/attn2/to_k/MatMul_output_0: 3d989942
(Unnamed Layer* 109) [Constant]_output: 3b1137c2
(Unnamed Layer* 110) [Shuffle]_output: 3b1137c2
/control_model/diffusion_model/output_blocks.6/output_blocks.6.1/transformer_blocks.0/attn2/to_v/MatMul_output_0: 3d64da5c
(Unnamed Layer* 112) [Constant]_output: 3b01aec8
(Unnamed Layer* 113) [Shuffle]_output: 3b01aec8
/control_model/diffusion_model/output_blocks.7/output_blocks.7.1/transformer_blocks.0/attn2/to_k/MatMul_output_0: 3d9a3bdd
(Unnamed Layer* 115) [Constant]_output: 3acc2bd1
(Unnamed Layer* 116) [Shuffle]_output: 3acc2bd1
/control_model/diffusion_model/output_blocks.7/output_blocks.7.1/transformer_blocks.0/attn2/to_v/MatMul_output_0: 3d5805e7
(Unnamed Layer* 118) [Constant]_output: 3af1e64f
(Unnamed Layer* 119) [Shuffle]_output: 3af1e64f
/control_model/diffusion_model/output_blocks.8/output_blocks.8.1/transformer_blocks.0/attn2/to_k/MatMul_output_0: 3d86e3fd
(Unnamed Layer* 121) [Constant]_output: 3ab4c37e
(Unnamed Layer* 122) [Shuffle]_output: 3ab4c37e
/control_model/diffusion_model/output_blocks.8/output_blocks.8.1/transformer_blocks.0/attn2/to_v/MatMul_output_0: 3d5c1c4c
(Unnamed Layer* 124) [Constant]_output: 3b608e3e
(Unnamed Layer* 125) [Shuffle]_output: 3b608e3e
/control_model/diffusion_model/output_blocks.9/output_blocks.9.1/transformer_blocks.0/attn2/to_k/MatMul_output_0: 3da5f902
(Unnamed Layer* 127) [Constant]_output: 3aa5ed3a
(Unnamed Layer* 128) [Shuffle]_output: 3aa5ed3a
/control_model/diffusion_model/output_blocks.9/output_blocks.9.1/transformer_blocks.0/attn2/to_v/MatMul_output_0: 3d0ad004
(Unnamed Layer* 130) [Constant]_output: 3b4c155f
(Unnamed Layer* 131) [Shuffle]_output: 3b4c155f
/control_model/diffusion_model/output_blocks.10/output_blocks.10.1/transformer_blocks.0/attn2/to_k/MatMul_output_0: 3db76952
(Unnamed Layer* 133) [Constant]_output: 3aa5e4c5
(Unnamed Layer* 134) [Shuffle]_output: 3aa5e4c5
/control_model/diffusion_model/output_blocks.10/output_blocks.10.1/transformer_blocks.0/attn2/to_v/MatMul_output_0: 3d43ef9d
(Unnamed Layer* 136) [Constant]_output: 3b4d5d47
(Unnamed Layer* 137) [Shuffle]_output: 3b4d5d47
/control_model/diffusion_model/output_blocks.11/output_blocks.11.1/transformer_blocks.0/attn2/to_k/MatMul_output_0: 3da21426
(Unnamed Layer* 139) [Constant]_output: 3aac2eee
(Unnamed Layer* 140) [Shuffle]_output: 3aac2eee
/control_model/diffusion_model/output_blocks.11/output_blocks.11.1/transformer_blocks.0/attn2/to_v/MatMul_output_0: 3d5e2993
(Unnamed Layer* 143) [Shuffle]_output: 3c010a14
/Sub_2_output_0: 3c660401
/Sqrt_1_output_0: 3c2a34a5
/control_model/control_model/input_blocks.0/input_blocks.0.0/Conv_output_0: 3c90e4c1
/control_model/control_model/Slice_output_0: 3d650caf
/control_model/control_model/input_blocks.1/input_blocks.1.1/transformer_blocks.0/attn2/Reshape_2_output_0: 3da3b229
/control_model/control_model/input_blocks.1/input_blocks.1.1/transformer_blocks.0/attn2/Reshape_4_output_0: 3d0effb8
/control_model/control_model/Slice_1_output_0: 3c06aa27
/control_model/control_model/input_blocks.2/input_blocks.2.1/transformer_blocks.0/attn2/Reshape_2_output_0: 3d91ce9b
/control_model/control_model/input_blocks.2/input_blocks.2.1/transformer_blocks.0/attn2/Reshape_4_output_0: 3d0f33e7
/control_model/control_model/Slice_2_output_0: 3c99edd3
/control_model/control_model/input_blocks.4/input_blocks.4.1/transformer_blocks.0/attn2/Reshape_2_output_0: 3db30950
/control_model/control_model/input_blocks.4/input_blocks.4.1/transformer_blocks.0/attn2/Reshape_4_output_0: 3da4c870
/control_model/control_model/Slice_3_output_0: 3bb2b52c
/control_model/control_model/input_blocks.5/input_blocks.5.1/transformer_blocks.0/attn2/Reshape_2_output_0: 3dc0498c
/control_model/control_model/input_blocks.5/input_blocks.5.1/transformer_blocks.0/attn2/Reshape_4_output_0: 3d9f5de2
/control_model/control_model/Slice_4_output_0: 3cc44f98
/control_model/control_model/input_blocks.7/input_blocks.7.1/transformer_blocks.0/attn2/Reshape_2_output_0: 3dab4a4d
/control_model/control_model/input_blocks.7/input_blocks.7.1/transformer_blocks.0/attn2/Reshape_4_output_0: 3d1e2a29
/control_model/control_model/Slice_5_output_0: 3c506d9e
/control_model/control_model/input_blocks.8/input_blocks.8.1/transformer_blocks.0/attn2/Reshape_2_output_0: 3dad4313
/control_model/control_model/input_blocks.8/input_blocks.8.1/transformer_blocks.0/attn2/Reshape_4_output_0: 3d1b9bad
/control_model/control_model/Slice_6_output_0: 3c3052f5
/control_model/control_model/Slice_7_output_0: 3ba61fe5
/control_model/control_model/Slice_8_output_0: 3bf6ac85
/control_model/control_model/middle_block.1/transformer_blocks.0/attn2/Reshape_2_output_0: 3d8b610a
/control_model/control_model/middle_block.1/transformer_blocks.0/attn2/Reshape_4_output_0: 3d135e12
/control_model/control_model/Slice_9_output_0: 3bf208da
/control_model/diffusion_model/input_blocks.0/input_blocks.0.0/Conv_output_0: 3c962860
/control_model/diffusion_model/Slice_output_0: 3d9cf94c
/control_model/diffusion_model/input_blocks.1/input_blocks.1.1/transformer_blocks.0/attn2/Reshape_2_output_0: 3d9ff996
/control_model/diffusion_model/input_blocks.1/input_blocks.1.1/transformer_blocks.0/attn2/Reshape_4_output_0: 3d056dd4
/control_model/diffusion_model/Slice_1_output_0: 3cc48f14
/control_model/diffusion_model/input_blocks.2/input_blocks.2.1/transformer_blocks.0/attn2/Reshape_2_output_0: 3db1983a
/control_model/diffusion_model/input_blocks.2/input_blocks.2.1/transformer_blocks.0/attn2/Reshape_4_output_0: 3d1d6d2d
/control_model/diffusion_model/Slice_2_output_0: 3d276d2b
/control_model/diffusion_model/input_blocks.4/input_blocks.4.1/transformer_blocks.0/attn2/Reshape_2_output_0: 3d99a472
/control_model/diffusion_model/input_blocks.4/input_blocks.4.1/transformer_blocks.0/attn2/Reshape_4_output_0: 3d952149
/control_model/diffusion_model/Slice_3_output_0: 3cd5d51b
/control_model/diffusion_model/input_blocks.5/input_blocks.5.1/transformer_blocks.0/attn2/Reshape_2_output_0: 3dc062f9
/control_model/diffusion_model/input_blocks.5/input_blocks.5.1/transformer_blocks.0/attn2/Reshape_4_output_0: 3d9aad42
/control_model/diffusion_model/Slice_4_output_0: 3d1003cf
/control_model/diffusion_model/input_blocks.7/input_blocks.7.1/transformer_blocks.0/attn2/Reshape_2_output_0: 3db06897
/control_model/diffusion_model/input_blocks.7/input_blocks.7.1/transformer_blocks.0/attn2/Reshape_4_output_0: 3d213aae
/control_model/diffusion_model/Slice_5_output_0: 3ce3daf5
/control_model/diffusion_model/input_blocks.8/input_blocks.8.1/transformer_blocks.0/attn2/Reshape_2_output_0: 3dacd6e9
/control_model/diffusion_model/input_blocks.8/input_blocks.8.1/transformer_blocks.0/attn2/Reshape_4_output_0: 3d14da4f
/control_model/diffusion_model/Slice_6_output_0: 3ce49ea6
/control_model/diffusion_model/Slice_7_output_0: 3c2bb056
/control_model/diffusion_model/Slice_8_output_0: 3c7fac8d
/control_model/diffusion_model/middle_block.1/transformer_blocks.0/attn2/Reshape_2_output_0: 3d9a495b
/control_model/diffusion_model/middle_block.1/transformer_blocks.0/attn2/Reshape_4_output_0: 3d0d638c
/control_model/diffusion_model/Slice_9_output_0: 3cb5eefc
/control_model/diffusion_model/Slice_10_output_0: 3c18af60
/control_model/diffusion_model/Slice_11_output_0: 3c578041
/control_model/diffusion_model/Slice_12_output_0: 3c72e7b4
/control_model/diffusion_model/Slice_13_output_0: 3d178a2f
/control_model/diffusion_model/output_blocks.3/output_blocks.3.1/transformer_blocks.0/attn2/Reshape_2_output_0: 3d8e0ba2
/control_model/diffusion_model/output_blocks.3/output_blocks.3.1/transformer_blocks.0/attn2/Reshape_4_output_0: 3d171aa5
/control_model/diffusion_model/Slice_14_output_0: 3cbeae0f
/control_model/diffusion_model/output_blocks.4/output_blocks.4.1/transformer_blocks.0/attn2/Reshape_2_output_0: 3da8a813
/control_model/diffusion_model/output_blocks.4/output_blocks.4.1/transformer_blocks.0/attn2/Reshape_4_output_0: 3d29616f
/control_model/diffusion_model/Slice_15_output_0: 3d016302
/control_model/diffusion_model/output_blocks.5/output_blocks.5.1/transformer_blocks.0/attn2/Reshape_2_output_0: 3d98a04b
/control_model/diffusion_model/output_blocks.5/output_blocks.5.1/transformer_blocks.0/attn2/Reshape_4_output_0: 3d30f37d
/control_model/diffusion_model/Slice_16_output_0: 3cee588f
/control_model/diffusion_model/output_blocks.6/output_blocks.6.1/transformer_blocks.0/attn2/Reshape_2_output_0: 3d989942
/control_model/diffusion_model/output_blocks.6/output_blocks.6.1/transformer_blocks.0/attn2/Reshape_4_output_0: 3d64da5c
/control_model/diffusion_model/Slice_17_output_0: 3ca2bcef
/control_model/diffusion_model/output_blocks.7/output_blocks.7.1/transformer_blocks.0/attn2/Reshape_2_output_0: 3d9a3bdd
/control_model/diffusion_model/output_blocks.7/output_blocks.7.1/transformer_blocks.0/attn2/Reshape_4_output_0: 3d5805e7
/control_model/diffusion_model/Slice_18_output_0: 3c7bda9c
/control_model/diffusion_model/output_blocks.8/output_blocks.8.1/transformer_blocks.0/attn2/Reshape_2_output_0: 3d86e3fd
/control_model/diffusion_model/output_blocks.8/output_blocks.8.1/transformer_blocks.0/attn2/Reshape_4_output_0: 3d5c1c4c
/control_model/diffusion_model/Slice_19_output_0: 3c3c6493
/control_model/diffusion_model/output_blocks.9/output_blocks.9.1/transformer_blocks.0/attn2/Reshape_2_output_0: 3da5f902
/control_model/diffusion_model/output_blocks.9/output_blocks.9.1/transformer_blocks.0/attn2/Reshape_4_output_0: 3d0ad004
/control_model/diffusion_model/Slice_20_output_0: 3c858aba
/control_model/diffusion_model/output_blocks.10/output_blocks.10.1/transformer_blocks.0/attn2/Reshape_2_output_0: 3db76952
/control_model/diffusion_model/output_blocks.10/output_blocks.10.1/transformer_blocks.0/attn2/Reshape_4_output_0: 3d43ef9d
/control_model/diffusion_model/Slice_21_output_0: 3cb9f4f9
/control_model/diffusion_model/output_blocks.11/output_blocks.11.1/transformer_blocks.0/attn2/Reshape_2_output_0: 3da21426
/control_model/diffusion_model/output_blocks.11/output_blocks.11.1/transformer_blocks.0/attn2/Reshape_4_output_0: 3d5e2993
/Sqrt_output_0: 3c73a4ba
/control_model/control_model/Add_output_0: 3cf35a5f
/control_model/control_model/input_blocks.1/input_blocks.1.1/transformer_blocks.0/attn2/Transpose_1_output_0: 3da3b229
/control_model/control_model/input_blocks.1/input_blocks.1.1/transformer_blocks.0/attn2/Transpose_2_output_0: 3d0effb8
/control_model/control_model/input_blocks.2/input_blocks.2.1/transformer_blocks.0/attn2/Transpose_1_output_0: 3d91ce9b
/control_model/control_model/input_blocks.2/input_blocks.2.1/transformer_blocks.0/attn2/Transpose_2_output_0: 3d0f33e7
/control_model/control_model/input_blocks.4/input_blocks.4.1/transformer_blocks.0/attn2/Transpose_1_output_0: 3db30950
/control_model/control_model/input_blocks.4/input_blocks.4.1/transformer_blocks.0/attn2/Transpose_2_output_0: 3da4c870
/control_model/control_model/input_blocks.5/input_blocks.5.1/transformer_blocks.0/attn2/Transpose_1_output_0: 3dc0498c
/control_model/control_model/input_blocks.5/input_blocks.5.1/transformer_blocks.0/attn2/Transpose_2_output_0: 3d9f5de2
/control_model/control_model/input_blocks.7/input_blocks.7.1/transformer_blocks.0/attn2/Transpose_1_output_0: 3dab4a4d
/control_model/control_model/input_blocks.7/input_blocks.7.1/transformer_blocks.0/attn2/Transpose_2_output_0: 3d1e2a29
/control_model/control_model/input_blocks.8/input_blocks.8.1/transformer_blocks.0/attn2/Transpose_1_output_0: 3dad4313
/control_model/control_model/input_blocks.8/input_blocks.8.1/transformer_blocks.0/attn2/Transpose_2_output_0: 3d1b9bad
/control_model/control_model/middle_block.1/transformer_blocks.0/attn2/Transpose_1_output_0: 3d8b610a
/control_model/control_model/middle_block.1/transformer_blocks.0/attn2/Transpose_2_output_0: 3d135e12
/control_model/diffusion_model/input_blocks.1/input_blocks.1.0/in_layers/in_layers.0/Reshape_output_0: 3c962860
/control_model/diffusion_model/input_blocks.1/input_blocks.1.1/transformer_blocks.0/attn2/Transpose_1_output_0: 3d9ff996
/control_model/diffusion_model/input_blocks.1/input_blocks.1.1/transformer_blocks.0/attn2/Transpose_2_output_0: 3d056dd4
/control_model/diffusion_model/input_blocks.2/input_blocks.2.1/transformer_blocks.0/attn2/Transpose_1_output_0: 3db1983a
/control_model/diffusion_model/input_blocks.2/input_blocks.2.1/transformer_blocks.0/attn2/Transpose_2_output_0: 3d1d6d2d
/control_model/diffusion_model/input_blocks.4/input_blocks.4.1/transformer_blocks.0/attn2/Transpose_1_output_0: 3d99a472
/control_model/diffusion_model/input_blocks.4/input_blocks.4.1/transformer_blocks.0/attn2/Transpose_2_output_0: 3d952149
/control_model/diffusion_model/input_blocks.5/input_blocks.5.1/transformer_blocks.0/attn2/Transpose_1_output_0: 3dc062f9
/control_model/diffusion_model/input_blocks.5/input_blocks.5.1/transformer_blocks.0/attn2/Transpose_2_output_0: 3d9aad42
/control_model/diffusion_model/input_blocks.7/input_blocks.7.1/transformer_blocks.0/attn2/Transpose_1_output_0: 3db06897
/control_model/diffusion_model/input_blocks.7/input_blocks.7.1/transformer_blocks.0/attn2/Transpose_2_output_0: 3d213aae
/control_model/diffusion_model/input_blocks.8/input_blocks.8.1/transformer_blocks.0/attn2/Transpose_1_output_0: 3dacd6e9
/control_model/diffusion_model/input_blocks.8/input_blocks.8.1/transformer_blocks.0/attn2/Transpose_2_output_0: 3d14da4f
/control_model/diffusion_model/middle_block.1/transformer_blocks.0/attn2/Transpose_1_output_0: 3d9a495b
/control_model/diffusion_model/middle_block.1/transformer_blocks.0/attn2/Transpose_2_output_0: 3d0d638c
/control_model/diffusion_model/output_blocks.3/output_blocks.3.1/transformer_blocks.0/attn2/Transpose_1_output_0: 3d8e0ba2
/control_model/diffusion_model/output_blocks.3/output_blocks.3.1/transformer_blocks.0/attn2/Transpose_2_output_0: 3d171aa5
/control_model/diffusion_model/output_blocks.4/output_blocks.4.1/transformer_blocks.0/attn2/Transpose_1_output_0: 3da8a813
/control_model/diffusion_model/output_blocks.4/output_blocks.4.1/transformer_blocks.0/attn2/Transpose_2_output_0: 3d29616f
/control_model/diffusion_model/output_blocks.5/output_blocks.5.1/transformer_blocks.0/attn2/Transpose_1_output_0: 3d98a04b
/control_model/diffusion_model/output_blocks.5/output_blocks.5.1/transformer_blocks.0/attn2/Transpose_2_output_0: 3d30f37d
/control_model/diffusion_model/output_blocks.6/output_blocks.6.1/transformer_blocks.0/attn2/Transpose_1_output_0: 3d989942
/control_model/diffusion_model/output_blocks.6/output_blocks.6.1/transformer_blocks.0/attn2/Transpose_2_output_0: 3d64da5c
/control_model/diffusion_model/output_blocks.7/output_blocks.7.1/transformer_blocks.0/attn2/Transpose_1_output_0: 3d9a3bdd
/control_model/diffusion_model/output_blocks.7/output_blocks.7.1/transformer_blocks.0/attn2/Transpose_2_output_0: 3d5805e7
/control_model/diffusion_model/output_blocks.8/output_blocks.8.1/transformer_blocks.0/attn2/Transpose_1_output_0: 3d86e3fd
/control_model/diffusion_model/output_blocks.8/output_blocks.8.1/transformer_blocks.0/attn2/Transpose_2_output_0: 3d5c1c4c
/control_model/diffusion_model/output_blocks.9/output_blocks.9.1/transformer_blocks.0/attn2/Transpose_1_output_0: 3da5f902
/control_model/diffusion_model/output_blocks.9/output_blocks.9.1/transformer_blocks.0/attn2/Transpose_2_output_0: 3d0ad004
/control_model/diffusion_model/output_blocks.10/output_blocks.10.1/transformer_blocks.0/attn2/Transpose_1_output_0: 3db76952
/control_model/diffusion_model/output_blocks.10/output_blocks.10.1/transformer_blocks.0/attn2/Transpose_2_output_0: 3d43ef9d
/control_model/diffusion_model/output_blocks.11/output_blocks.11.1/transformer_blocks.0/attn2/Transpose_1_output_0: 3da21426
/control_model/diffusion_model/output_blocks.11/output_blocks.11.1/transformer_blocks.0/attn2/Transpose_2_output_0: 3d5e2993
/control_model/control_model/zero_convs.0/zero_convs.0.0/Conv_output_0: 3b1de07f
/control_model/control_model/input_blocks.1/input_blocks.1.0/in_layers/in_layers.0/Reshape_output_0: 3cf35a5f
/control_model/control_model/input_blocks.1/input_blocks.1.1/transformer_blocks.0/attn2/Reshape_3_output_0: 3da3b229
/control_model/control_model/input_blocks.1/input_blocks.1.1/transformer_blocks.0/attn2/Reshape_5_output_0: 3d0effb8
/control_model/control_model/input_blocks.2/input_blocks.2.1/transformer_blocks.0/attn2/Reshape_3_output_0: 3d91ce9b
/control_model/control_model/input_blocks.2/input_blocks.2.1/transformer_blocks.0/attn2/Reshape_5_output_0: 3d0f33e7
/control_model/control_model/input_blocks.4/input_blocks.4.1/transformer_blocks.0/attn2/Reshape_3_output_0: 3db30950
/control_model/control_model/input_blocks.4/input_blocks.4.1/transformer_blocks.0/attn2/Reshape_5_output_0: 3da4c870
/control_model/control_model/input_blocks.5/input_blocks.5.1/transformer_blocks.0/attn2/Reshape_3_output_0: 3dc0498c
/control_model/control_model/input_blocks.5/input_blocks.5.1/transformer_blocks.0/attn2/Reshape_5_output_0: 3d9f5de2
/control_model/control_model/input_blocks.7/input_blocks.7.1/transformer_blocks.0/attn2/Reshape_3_output_0: 3dab4a4d
/control_model/control_model/input_blocks.7/input_blocks.7.1/transformer_blocks.0/attn2/Reshape_5_output_0: 3d1e2a29
/control_model/control_model/input_blocks.8/input_blocks.8.1/transformer_blocks.0/attn2/Reshape_3_output_0: 3dad4313
/control_model/control_model/input_blocks.8/input_blocks.8.1/transformer_blocks.0/attn2/Reshape_5_output_0: 3d1b9bad
/control_model/control_model/middle_block.1/transformer_blocks.0/attn2/Reshape_3_output_0: 3d8b610a
/control_model/control_model/middle_block.1/transformer_blocks.0/attn2/Reshape_5_output_0: 3d135e12
(Unnamed Layer* 291) [Shuffle]_output: 3c962860
(Unnamed Layer* 292) [PluginV2DynamicExt]_output: 3d5470c4
/control_model/diffusion_model/input_blocks.1/input_blocks.1.0/in_layers/in_layers.0/InstanceNormalization_output_0: 3d5470c4
/control_model/diffusion_model/input_blocks.1/input_blocks.1.1/transformer_blocks.0/attn2/Reshape_3_output_0: 3d9ff996
/control_model/diffusion_model/input_blocks.1/input_blocks.1.1/transformer_blocks.0/attn2/Reshape_5_output_0: 3d056dd4
/control_model/diffusion_model/input_blocks.2/input_blocks.2.1/transformer_blocks.0/attn2/Reshape_3_output_0: 3db1983a
/control_model/diffusion_model/input_blocks.2/input_blocks.2.1/transformer_blocks.0/attn2/Reshape_5_output_0: 3d1d6d2d
/control_model/diffusion_model/input_blocks.4/input_blocks.4.1/transformer_blocks.0/attn2/Reshape_3_output_0: 3d99a472
/control_model/diffusion_model/input_blocks.4/input_blocks.4.1/transformer_blocks.0/attn2/Reshape_5_output_0: 3d952149
/control_model/diffusion_model/input_blocks.5/input_blocks.5.1/transformer_blocks.0/attn2/Reshape_3_output_0: 3dc062f9
/control_model/diffusion_model/input_blocks.5/input_blocks.5.1/transformer_blocks.0/attn2/Reshape_5_output_0: 3d9aad42
/control_model/diffusion_model/input_blocks.7/input_blocks.7.1/transformer_blocks.0/attn2/Reshape_3_output_0: 3db06897
/control_model/diffusion_model/input_blocks.7/input_blocks.7.1/transformer_blocks.0/attn2/Reshape_5_output_0: 3d213aae
/control_model/diffusion_model/input_blocks.8/input_blocks.8.1/transformer_blocks.0/attn2/Reshape_3_output_0: 3dacd6e9
/control_model/diffusion_model/input_blocks.8/input_blocks.8.1/transformer_blocks.0/attn2/Reshape_5_output_0: 3d14da4f
/control_model/diffusion_model/middle_block.1/transformer_blocks.0/attn2/Reshape_3_output_0: 3d9a495b
/control_model/diffusion_model/middle_block.1/transformer_blocks.0/attn2/Reshape_5_output_0: 3d0d638c
/control_model/diffusion_model/output_blocks.3/output_blocks.3.1/transformer_blocks.0/attn2/Reshape_3_output_0: 3d8e0ba2
/control_model/diffusion_model/output_blocks.3/output_blocks.3.1/transformer_blocks.0/attn2/Reshape_5_output_0: 3d171aa5
/control_model/diffusion_model/output_blocks.4/output_blocks.4.1/transformer_blocks.0/attn2/Reshape_3_output_0: 3da8a813
/control_model/diffusion_model/output_blocks.4/output_blocks.4.1/transformer_blocks.0/attn2/Reshape_5_output_0: 3d29616f
/control_model/diffusion_model/output_blocks.5/output_blocks.5.1/transformer_blocks.0/attn2/Reshape_3_output_0: 3d98a04b
/control_model/diffusion_model/output_blocks.5/output_blocks.5.1/transformer_blocks.0/attn2/Reshape_5_output_0: 3d30f37d
/control_model/diffusion_model/output_blocks.6/output_blocks.6.1/transformer_blocks.0/attn2/Reshape_3_output_0: 3d989942
/control_model/diffusion_model/output_blocks.6/output_blocks.6.1/transformer_blocks.0/attn2/Reshape_5_output_0: 3d64da5c
/control_model/diffusion_model/output_blocks.7/output_blocks.7.1/transformer_blocks.0/attn2/Reshape_3_output_0: 3d9a3bdd
/control_model/diffusion_model/output_blocks.7/output_blocks.7.1/transformer_blocks.0/attn2/Reshape_5_output_0: 3d5805e7
/control_model/diffusion_model/output_blocks.8/output_blocks.8.1/transformer_blocks.0/attn2/Reshape_3_output_0: 3d86e3fd
/control_model/diffusion_model/output_blocks.8/output_blocks.8.1/transformer_blocks.0/attn2/Reshape_5_output_0: 3d5c1c4c
/control_model/diffusion_model/output_blocks.9/output_blocks.9.1/transformer_blocks.0/attn2/Reshape_3_output_0: 3da5f902
/control_model/diffusion_model/output_blocks.9/output_blocks.9.1/transformer_blocks.0/attn2/Reshape_5_output_0: 3d0ad004
/control_model/diffusion_model/output_blocks.10/output_blocks.10.1/transformer_blocks.0/attn2/Reshape_3_output_0: 3db76952
/control_model/diffusion_model/output_blocks.10/output_blocks.10.1/transformer_blocks.0/attn2/Reshape_5_output_0: 3d43ef9d
/control_model/diffusion_model/output_blocks.11/output_blocks.11.1/transformer_blocks.0/attn2/Reshape_3_output_0: 3da21426
/control_model/diffusion_model/output_blocks.11/output_blocks.11.1/transformer_blocks.0/attn2/Reshape_5_output_0: 3d5e2993
(Unnamed Layer* 326) [Shuffle]_output: 3cf35a5f
(Unnamed Layer* 327) [PluginV2DynamicExt]_output: 3d5767b9
/control_model/control_model/input_blocks.1/input_blocks.1.0/in_layers/in_layers.0/InstanceNormalization_output_0: 3d5767b9
/control_model/diffusion_model/input_blocks.1/input_blocks.1.0/in_layers/in_layers.0/Reshape_1_output_0: 3d5470c4
/control_model/diffusion_model/Add_12_output_0: 3c97e7ad
/control_model/control_model/input_blocks.1/input_blocks.1.0/in_layers/in_layers.0/Reshape_1_output_0: 3d5767b9
(Unnamed Layer* 332) [Constant]_output: 3bc660ba
(Unnamed Layer* 333) [Shuffle]_output: 3bc660ba
/control_model/diffusion_model/input_blocks.1/input_blocks.1.0/in_layers/in_layers.0/Mul_output_0: 3cdf7a3a
(Unnamed Layer* 335) [Constant]_output: 3bbc6596
(Unnamed Layer* 336) [Shuffle]_output: 3bbc6596
/control_model/control_model/input_blocks.1/input_blocks.1.0/in_layers/in_layers.0/Mul_output_0: 3ce36ff2
(Unnamed Layer* 338) [Constant]_output: 3ac7c337
(Unnamed Layer* 339) [Shuffle]_output: 3ac7c337
/control_model/diffusion_model/input_blocks.1/input_blocks.1.0/in_layers/in_layers.0/Add_output_0: 3cdf3048
(Unnamed Layer* 341) [Constant]_output: 3ac31345
(Unnamed Layer* 342) [Shuffle]_output: 3ac31345
/control_model/control_model/input_blocks.1/input_blocks.1.0/in_layers/in_layers.0/Add_output_0: 3ce4ab0d
/control_model/diffusion_model/input_blocks.1/input_blocks.1.0/in_layers/in_layers.1/Sigmoid_output_0: 3bf8ee91
/control_model/control_model/input_blocks.1/input_blocks.1.0/in_layers/in_layers.1/Sigmoid_output_0: 3bfaa566
/control_model/diffusion_model/input_blocks.1/input_blocks.1.0/in_layers/in_layers.1/Mul_output_0: 3c99663a
/control_model/control_model/input_blocks.1/input_blocks.1.0/in_layers/in_layers.1/Mul_output_0: 3c914a08
/control_model/diffusion_model/input_blocks.1/input_blocks.1.0/in_layers/in_layers.2/Conv_output_0: 3d8bb4b1
/control_model/control_model/input_blocks.1/input_blocks.1.0/in_layers/in_layers.2/Conv_output_0: 3d740b91
/control_model/diffusion_model/input_blocks.1/input_blocks.1.0/Add_output_0: 3e046fa1
/control_model/control_model/input_blocks.1/input_blocks.1.0/Add_output_0: 3dbac15c
/control_model/diffusion_model/input_blocks.1/input_blocks.1.0/out_layers/out_layers.0/Reshape_output_0: 3e046fa1
/control_model/control_model/input_blocks.1/input_blocks.1.0/out_layers/out_layers.0/Reshape_output_0: 3dbac15c
(Unnamed Layer* 354) [Shuffle]_output: 3e046fa1
(Unnamed Layer* 355) [PluginV2DynamicExt]_output: 3d817ea7
/control_model/diffusion_model/input_blocks.1/input_blocks.1.0/out_layers/out_layers.0/InstanceNormalization_output_0: 3d817ea7
(Unnamed Layer* 357) [Shuffle]_output: 3dbac15c
(Unnamed Layer* 358) [PluginV2DynamicExt]_output: 3d6e3227
/control_model/control_model/input_blocks.1/input_blocks.1.0/out_layers/out_layers.0/InstanceNormalization_output_0: 3d6e3227
/control_model/diffusion_model/input_blocks.1/input_blocks.1.0/out_layers/out_layers.0/Reshape_1_output_0: 3d817ea7
/control_model/control_model/input_blocks.1/input_blocks.1.0/out_layers/out_layers.0/Reshape_1_output_0: 3d6e3227
(Unnamed Layer* 362) [Constant]_output: 3c419a23
(Unnamed Layer* 363) [Shuffle]_output: 3c419a23
/control_model/diffusion_model/input_blocks.1/input_blocks.1.0/out_layers/out_layers.0/Mul_output_0: 3d2c0546
(Unnamed Layer* 365) [Constant]_output: 3c40abcc
(Unnamed Layer* 366) [Shuffle]_output: 3c40abcc
/control_model/control_model/input_blocks.1/input_blocks.1.0/out_layers/out_layers.0/Mul_output_0: 3d145f3d
(Unnamed Layer* 368) [Constant]_output: 3b0ff479
(Unnamed Layer* 369) [Shuffle]_output: 3b0ff479
/control_model/diffusion_model/input_blocks.1/input_blocks.1.0/out_layers/out_layers.0/Add_output_0: 3d1d98a1
(Unnamed Layer* 371) [Constant]_output: 3af24507
(Unnamed Layer* 372) [Shuffle]_output: 3af24507
/control_model/control_model/input_blocks.1/input_blocks.1.0/out_layers/out_layers.0/Add_output_0: 3d1aec39
/control_model/diffusion_model/input_blocks.1/input_blocks.1.0/out_layers/out_layers.1/Sigmoid_output_0: 3bdca516
/control_model/control_model/input_blocks.1/input_blocks.1.0/out_layers/out_layers.1/Sigmoid_output_0: 3bf016f2
/control_model/diffusion_model/input_blocks.1/input_blocks.1.0/out_layers/out_layers.1/Mul_output_0: 3bd64d27
/control_model/control_model/input_blocks.1/input_blocks.1.0/out_layers/out_layers.1/Mul_output_0: 3c312e23
/control_model/diffusion_model/input_blocks.1/input_blocks.1.0/out_layers/out_layers.3/Conv_output_0: 3d282178
/control_model/control_model/input_blocks.1/input_blocks.1.0/out_layers/out_layers.3/Conv_output_0: 3d0ffe2e
/control_model/diffusion_model/input_blocks.1/input_blocks.1.0/Add_1_output_0: 3d39f9a8
/control_model/control_model/input_blocks.1/input_blocks.1.0/Add_1_output_0: 3d2d7465
/control_model/diffusion_model/input_blocks.1/input_blocks.1.1/norm/Reshape_output_0: 3d39f9a8
/control_model/control_model/input_blocks.1/input_blocks.1.1/norm/Reshape_output_0: 3d2d7465
(Unnamed Layer* 384) [Shuffle]_output: 3d39f9a8
(Unnamed Layer* 385) [PluginV2DynamicExt]_output: 3d6f32d3
/control_model/diffusion_model/input_blocks.1/input_blocks.1.1/norm/InstanceNormalization_output_0: 3d6f32d3
(Unnamed Layer* 387) [Shuffle]_output: 3d2d7465
(Unnamed Layer* 388) [PluginV2DynamicExt]_output: 3d67d707
/control_model/control_model/input_blocks.1/input_blocks.1.1/norm/InstanceNormalization_output_0: 3d67d707
/control_model/diffusion_model/input_blocks.1/input_blocks.1.1/norm/Reshape_1_output_0: 3d6f32d3
/control_model/control_model/input_blocks.1/input_blocks.1.1/norm/Reshape_1_output_0: 3d67d707
(Unnamed Layer* 392) [Constant]_output: 3b8888e4
(Unnamed Layer* 393) [Shuffle]_output: 3b8888e4
/control_model/diffusion_model/input_blocks.1/input_blocks.1.1/norm/Mul_output_0: 3c308848
(Unnamed Layer* 395) [Constant]_output: 3b88cd11
(Unnamed Layer* 396) [Shuffle]_output: 3b88cd11
/control_model/control_model/input_blocks.1/input_blocks.1.1/norm/Mul_output_0: 3c4dd47c
(Unnamed Layer* 398) [Constant]_output: 3b19f9cc
(Unnamed Layer* 399) [Shuffle]_output: 3b19f9cc
/control_model/diffusion_model/input_blocks.1/input_blocks.1.1/norm/Add_output_0: 3c27eee4
(Unnamed Layer* 401) [Constant]_output: 3b068225
(Unnamed Layer* 402) [Shuffle]_output: 3b068225
/control_model/control_model/input_blocks.1/input_blocks.1.1/norm/Add_output_0: 3c496663
/control_model/diffusion_model/input_blocks.1/input_blocks.1.1/proj_in/Conv_output_0: 3c49bd16
/control_model/control_model/input_blocks.1/input_blocks.1.1/proj_in/Conv_output_0: 3c6b74d0
/control_model/diffusion_model/input_blocks.1/input_blocks.1.1/Transpose_output_0: 3c49bd16
/control_model/control_model/input_blocks.1/input_blocks.1.1/Transpose_output_0: 3c6b74d0
/control_model/diffusion_model/input_blocks.1/input_blocks.1.1/Reshape_1_output_0: 3c49bd16
/control_model/control_model/input_blocks.1/input_blocks.1.1/Reshape_1_output_0: 3c6b74d0
/control_model/diffusion_model/input_blocks.1/input_blocks.1.1/transformer_blocks.0/norm1/LayerNormalization_output_0: 3cc8a3ef
/control_model/control_model/input_blocks.1/input_blocks.1.1/transformer_blocks.0/norm1/LayerNormalization_output_0: 3cb34f28
(Unnamed Layer* 422) [Constant]_output: 3b54c586
(Unnamed Layer* 423) [Shuffle]_output: 3b54c586
/control_model/diffusion_model/input_blocks.1/input_blocks.1.1/transformer_blocks.0/attn1/to_q/MatMul_output_0: 3d61e71c
(Unnamed Layer* 425) [Constant]_output: 3b41a296
(Unnamed Layer* 426) [Shuffle]_output: 3b41a296
/control_model/diffusion_model/input_blocks.1/input_blocks.1.1/transformer_blocks.0/attn1/to_k/MatMul_output_0: 3d4bc027
(Unnamed Layer* 428) [Constant]_output: 3b014672
(Unnamed Layer* 429) [Shuffle]_output: 3b014672
/control_model/diffusion_model/input_blocks.1/input_blocks.1.1/transformer_blocks.0/attn1/to_v/MatMul_output_0: 3cf69ccd
(Unnamed Layer* 431) [Constant]_output: 3b6bd1d4
(Unnamed Layer* 432) [Shuffle]_output: 3b6bd1d4
/control_model/control_model/input_blocks.1/input_blocks.1.1/transformer_blocks.0/attn1/to_q/MatMul_output_0: 3d477eaf
(Unnamed Layer* 434) [Constant]_output: 3b41e022
(Unnamed Layer* 435) [Shuffle]_output: 3b41e022
/control_model/control_model/input_blocks.1/input_blocks.1.1/transformer_blocks.0/attn1/to_k/MatMul_output_0: 3d3b073f
(Unnamed Layer* 437) [Constant]_output: 3b000996
(Unnamed Layer* 438) [Shuffle]_output: 3b000996
/control_model/control_model/input_blocks.1/input_blocks.1.1/transformer_blocks.0/attn1/to_v/MatMul_output_0: 3cb573e4
/control_model/diffusion_model/input_blocks.1/input_blocks.1.1/transformer_blocks.0/attn1/Reshape_output_0: 3d61e71c
/control_model/diffusion_model/input_blocks.1/input_blocks.1.1/transformer_blocks.0/attn1/Reshape_2_output_0: 3d4bc027
/control_model/diffusion_model/input_blocks.1/input_blocks.1.1/transformer_blocks.0/attn1/Reshape_4_output_0: 3cf69ccd
/control_model/control_model/input_blocks.1/input_blocks.1.1/transformer_blocks.0/attn1/Reshape_output_0: 3d477eaf
/control_model/control_model/input_blocks.1/input_blocks.1.1/transformer_blocks.0/attn1/Reshape_2_output_0: 3d3b073f
/control_model/control_model/input_blocks.1/input_blocks.1.1/transformer_blocks.0/attn1/Reshape_4_output_0: 3cb573e4
/control_model/diffusion_model/input_blocks.1/input_blocks.1.1/transformer_blocks.0/attn1/Transpose_output_0: 3d61e71c
/control_model/diffusion_model/input_blocks.1/input_blocks.1.1/transformer_blocks.0/attn1/Transpose_1_output_0: 3d4bc027
/control_model/diffusion_model/input_blocks.1/input_blocks.1.1/transformer_blocks.0/attn1/Transpose_2_output_0: 3cf69ccd
/control_model/control_model/input_blocks.1/input_blocks.1.1/transformer_blocks.0/attn1/Transpose_output_0: 3d477eaf
/control_model/control_model/input_blocks.1/input_blocks.1.1/transformer_blocks.0/attn1/Transpose_1_output_0: 3d3b073f
/control_model/control_model/input_blocks.1/input_blocks.1.1/transformer_blocks.0/attn1/Transpose_2_output_0: 3cb573e4
/control_model/diffusion_model/input_blocks.1/input_blocks.1.1/transformer_blocks.0/attn1/Reshape_1_output_0: 3d61e71c
/control_model/diffusion_model/input_blocks.1/input_blocks.1.1/transformer_blocks.0/attn1/Reshape_3_output_0: 3d4bc027
/control_model/diffusion_model/input_blocks.1/input_blocks.1.1/transformer_blocks.0/attn1/Reshape_5_output_0: 3cf69ccd
/control_model/control_model/input_blocks.1/input_blocks.1.1/transformer_blocks.0/attn1/Reshape_1_output_0: 3d477eaf
/control_model/control_model/input_blocks.1/input_blocks.1.1/transformer_blocks.0/attn1/Reshape_3_output_0: 3d3b073f
/control_model/control_model/input_blocks.1/input_blocks.1.1/transformer_blocks.0/attn1/Reshape_5_output_0: 3cb573e4
/control_model/diffusion_model/input_blocks.1/input_blocks.1.1/transformer_blocks.0/attn1/Einsum_output_0: 3f663f83
/control_model/control_model/input_blocks.1/input_blocks.1.1/transformer_blocks.0/attn1/Einsum_output_0: 3f5affb1
(Unnamed Layer* 461) [Shuffle]_output: 3aa3392c
/control_model/diffusion_model/input_blocks.1/input_blocks.1.1/transformer_blocks.0/attn1/Mul_output_0: 3e119f26
(Unnamed Layer* 464) [Shuffle]_output: 3aa3392c
/control_model/control_model/input_blocks.1/input_blocks.1.1/transformer_blocks.0/attn1/Mul_output_0: 3e0a81cb
(Unnamed Layer* 466) [Softmax]_output: 3a7b3aac
(Unnamed Layer* 468) [Softmax]_output: 3a67c87a
/control_model/diffusion_model/input_blocks.1/input_blocks.1.1/transformer_blocks.0/attn1/Einsum_1_output_0: 3c69f4af
/control_model/control_model/input_blocks.1/input_blocks.1.1/transformer_blocks.0/attn1/Einsum_1_output_0: 3c47a247
/control_model/diffusion_model/input_blocks.1/input_blocks.1.1/transformer_blocks.0/attn1/Reshape_6_output_0: 3c69f4af
/control_model/control_model/input_blocks.1/input_blocks.1.1/transformer_blocks.0/attn1/Reshape_6_output_0: 3c47a247
/control_model/diffusion_model/input_blocks.1/input_blocks.1.1/transformer_blocks.0/attn1/Transpose_3_output_0: 3c69f4af
/control_model/control_model/input_blocks.1/input_blocks.1.1/transformer_blocks.0/attn1/Transpose_3_output_0: 3c47a247
/control_model/diffusion_model/input_blocks.1/input_blocks.1.1/transformer_blocks.0/attn1/Reshape_7_output_0: 3c69f4af
/control_model/control_model/input_blocks.1/input_blocks.1.1/transformer_blocks.0/attn1/Reshape_7_output_0: 3c47a247
(Unnamed Layer* 478) [Constant]_output: 3add917d
(Unnamed Layer* 479) [Shuffle]_output: 3add917d
/control_model/diffusion_model/input_blocks.1/input_blocks.1.1/transformer_blocks.0/attn1/to_out/to_out.0/MatMul_output_0: 3c528a79
(Unnamed Layer* 481) [Constant]_output: 3adf14b3
(Unnamed Layer* 482) [Shuffle]_output: 3adf14b3
/control_model/control_model/input_blocks.1/input_blocks.1.1/transformer_blocks.0/attn1/to_out/to_out.0/MatMul_output_0: 3c0e0830
(Unnamed Layer* 484) [Constant]_output: 3aaabd62
(Unnamed Layer* 485) [Shuffle]_output: 3aaabd62
/control_model/diffusion_model/input_blocks.1/input_blocks.1.1/transformer_blocks.0/attn1/to_out/to_out.0/Add_output_0: 3c640856
(Unnamed Layer* 487) [Constant]_output: 3b0fdf1b
(Unnamed Layer* 488) [Shuffle]_output: 3b0fdf1b
/control_model/control_model/input_blocks.1/input_blocks.1.1/transformer_blocks.0/attn1/to_out/to_out.0/Add_output_0: 3c1940ab
/control_model/diffusion_model/input_blocks.1/input_blocks.1.1/transformer_blocks.0/Add_output_0: 3ca8140d
/control_model/control_model/input_blocks.1/input_blocks.1.1/transformer_blocks.0/Add_output_0: 3c7a184c
/control_model/diffusion_model/input_blocks.1/input_blocks.1.1/transformer_blocks.0/norm2/LayerNormalization_output_0: 3cc85e0e
/control_model/control_model/input_blocks.1/input_blocks.1.1/transformer_blocks.0/norm2/LayerNormalization_output_0: 3c88e324
(Unnamed Layer* 502) [Constant]_output: 3b24d483
(Unnamed Layer* 503) [Shuffle]_output: 3b24d483
/control_model/diffusion_model/input_blocks.1/input_blocks.1.1/transformer_blocks.0/attn2/to_q/MatMul_output_0: 3cb03734
(Unnamed Layer* 505) [Constant]_output: 3b2032ba
(Unnamed Layer* 506) [Shuffle]_output: 3b2032ba
/control_model/control_model/input_blocks.1/input_blocks.1.1/transformer_blocks.0/attn2/to_q/MatMul_output_0: 3cbd5711
/control_model/diffusion_model/input_blocks.1/input_blocks.1.1/transformer_blocks.0/attn2/Reshape_output_0: 3cb03734
/control_model/control_model/input_blocks.1/input_blocks.1.1/transformer_blocks.0/attn2/Reshape_output_0: 3cbd5711
/control_model/diffusion_model/input_blocks.1/input_blocks.1.1/transformer_blocks.0/attn2/Transpose_output_0: 3cb03734
/control_model/control_model/input_blocks.1/input_blocks.1.1/transformer_blocks.0/attn2/Transpose_output_0: 3cbd5711
/control_model/diffusion_model/input_blocks.1/input_blocks.1.1/transformer_blocks.0/attn2/Reshape_1_output_0: 3cb03734
/control_model/control_model/input_blocks.1/input_blocks.1.1/transformer_blocks.0/attn2/Reshape_1_output_0: 3cbd5711
/control_model/diffusion_model/input_blocks.1/input_blocks.1.1/transformer_blocks.0/attn2/Einsum_output_0: 3f19ee07
/control_model/control_model/input_blocks.1/input_blocks.1.1/transformer_blocks.0/attn2/Einsum_output_0: 3f2a7ef1
(Unnamed Layer* 517) [Shuffle]_output: 3aa3392c
/control_model/diffusion_model/input_blocks.1/input_blocks.1.1/transformer_blocks.0/attn2/Mul_2_output_0: 3dc2b51f
(Unnamed Layer* 520) [Shuffle]_output: 3aa3392c
/control_model/control_model/input_blocks.1/input_blocks.1.1/transformer_blocks.0/attn2/Mul_2_output_0: 3dd7a980
(Unnamed Layer* 522) [Softmax]_output: 3a817de4
(Unnamed Layer* 524) [Softmax]_output: 3c01b352
/control_model/diffusion_model/input_blocks.1/input_blocks.1.1/transformer_blocks.0/attn2/Einsum_1_output_0: 3c74e518
/control_model/control_model/input_blocks.1/input_blocks.1.1/transformer_blocks.0/attn2/Einsum_1_output_0: 3be588ef
/control_model/diffusion_model/input_blocks.1/input_blocks.1.1/transformer_blocks.0/attn2/Reshape_6_output_0: 3c74e518
/control_model/control_model/input_blocks.1/input_blocks.1.1/transformer_blocks.0/attn2/Reshape_6_output_0: 3be588ef
/control_model/diffusion_model/input_blocks.1/input_blocks.1.1/transformer_blocks.0/attn2/Transpose_3_output_0: 3c74e518
/control_model/control_model/input_blocks.1/input_blocks.1.1/transformer_blocks.0/attn2/Transpose_3_output_0: 3be588ef
/control_model/diffusion_model/input_blocks.1/input_blocks.1.1/transformer_blocks.0/attn2/Reshape_7_output_0: 3c74e518
/control_model/control_model/input_blocks.1/input_blocks.1.1/transformer_blocks.0/attn2/Reshape_7_output_0: 3be588ef
(Unnamed Layer* 534) [Constant]_output: 3a2c48f2
(Unnamed Layer* 535) [Shuffle]_output: 3a2c48f2
/control_model/diffusion_model/input_blocks.1/input_blocks.1.1/transformer_blocks.0/attn2/to_out/to_out.0/MatMul_output_0: 3b5a8eee
(Unnamed Layer* 537) [Constant]_output: 3a25c205
(Unnamed Layer* 538) [Shuffle]_output: 3a25c205
/control_model/control_model/input_blocks.1/input_blocks.1.1/transformer_blocks.0/attn2/to_out/to_out.0/MatMul_output_0: 3c1b5e02
(Unnamed Layer* 540) [Constant]_output: 3a7303ea
(Unnamed Layer* 541) [Shuffle]_output: 3a7303ea
/control_model/diffusion_model/input_blocks.1/input_blocks.1.1/transformer_blocks.0/attn2/to_out/to_out.0/Add_output_0: 3bb51f1e
(Unnamed Layer* 543) [Constant]_output: 3a77cf57
(Unnamed Layer* 544) [Shuffle]_output: 3a77cf57
/control_model/control_model/input_blocks.1/input_blocks.1.1/transformer_blocks.0/attn2/to_out/to_out.0/Add_output_0: 3bec8c08
/control_model/diffusion_model/input_blocks.1/input_blocks.1.1/transformer_blocks.0/Add_1_output_0: 3cbb8a26
/control_model/control_model/input_blocks.1/input_blocks.1.1/transformer_blocks.0/Add_1_output_0: 3c479c43
/control_model/diffusion_model/input_blocks.1/input_blocks.1.1/transformer_blocks.0/norm3/LayerNormalization_output_0: 3ccfc10c
/control_model/control_model/input_blocks.1/input_blocks.1.1/transformer_blocks.0/norm3/LayerNormalization_output_0: 3c8b70a5
(Unnamed Layer* 558) [Constant]_output: 3b65cbb2
(Unnamed Layer* 559) [Shuffle]_output: 3b65cbb2
/control_model/diffusion_model/input_blocks.1/input_blocks.1.1/transformer_blocks.0/ff/net/net.0/proj/MatMul_output_0: 3d22f3d0
(Unnamed Layer* 561) [Constant]_output: 3b6e62a0
(Unnamed Layer* 562) [Shuffle]_output: 3b6e62a0
/control_model/control_model/input_blocks.1/input_blocks.1.1/transformer_blocks.0/ff/net/net.0/proj/MatMul_output_0: 3d0a5113
(Unnamed Layer* 564) [Constant]_output: 3b218c5b
(Unnamed Layer* 565) [Shuffle]_output: 3b218c5b
/control_model/diffusion_model/input_blocks.1/input_blocks.1.1/transformer_blocks.0/ff/net/net.0/proj/Add_output_0: 3d2bb7fe
(Unnamed Layer* 567) [Constant]_output: 3b161cfd
(Unnamed Layer* 568) [Shuffle]_output: 3b161cfd
/control_model/control_model/input_blocks.1/input_blocks.1.1/transformer_blocks.0/ff/net/net.0/proj/Add_output_0: 3d12639e
/control_model/diffusion_model/input_blocks.1/input_blocks.1.1/transformer_blocks.0/ff/net/net.0/Split_output_0: 3cef925c
/control_model/diffusion_model/input_blocks.1/input_blocks.1.1/transformer_blocks.0/ff/net/net.0/Split_output_1: 3d56463d
/control_model/control_model/input_blocks.1/input_blocks.1.1/transformer_blocks.0/ff/net/net.0/Split_output_0: 3cb7f97a
/control_model/control_model/input_blocks.1/input_blocks.1.1/transformer_blocks.0/ff/net/net.0/Split_output_1: 3d14d042
(Unnamed Layer* 575) [Shuffle]_output: 3c367d3d
/control_model/diffusion_model/input_blocks.1/input_blocks.1.1/transformer_blocks.0/ff/net/net.0/Div_output_0: 3d1783cf
(Unnamed Layer* 578) [Shuffle]_output: 3c367d3d
/control_model/control_model/input_blocks.1/input_blocks.1.1/transformer_blocks.0/ff/net/net.0/Div_output_0: 3cd2743d
/control_model/diffusion_model/input_blocks.1/input_blocks.1.1/transformer_blocks.0/ff/net/net.0/Erf_output_0: 3c02d5aa
/control_model/control_model/input_blocks.1/input_blocks.1.1/transformer_blocks.0/ff/net/net.0/Erf_output_0: 3c0213f6
(Unnamed Layer* 583) [Shuffle]_output: 3c010a14
/control_model/diffusion_model/input_blocks.1/input_blocks.1.1/transformer_blocks.0/ff/net/net.0/Add_output_0: 3c810d33
(Unnamed Layer* 586) [Shuffle]_output: 3c010a14
/control_model/control_model/input_blocks.1/input_blocks.1.1/transformer_blocks.0/ff/net/net.0/Add_output_0: 3c80ecf5
/control_model/diffusion_model/input_blocks.1/input_blocks.1.1/transformer_blocks.0/ff/net/net.0/Mul_output_0: 3d0034fd
/control_model/control_model/input_blocks.1/input_blocks.1.1/transformer_blocks.0/ff/net/net.0/Mul_output_0: 3d5067f2
(Unnamed Layer* 591) [Shuffle]_output: 3b810a14
/control_model/diffusion_model/input_blocks.1/input_blocks.1.1/transformer_blocks.0/ff/net/net.0/Mul_1_output_0: 3c8034fd
(Unnamed Layer* 594) [Shuffle]_output: 3b810a14
/control_model/control_model/input_blocks.1/input_blocks.1.1/transformer_blocks.0/ff/net/net.0/Mul_1_output_0: 3cd067f2
/control_model/diffusion_model/input_blocks.1/input_blocks.1.1/transformer_blocks.0/ff/net/net.0/Mul_2_output_0: 3c4caf60
/control_model/control_model/input_blocks.1/input_blocks.1.1/transformer_blocks.0/ff/net/net.0/Mul_2_output_0: 3cb7e298
(Unnamed Layer* 598) [Constant]_output: 3b063f02
(Unnamed Layer* 599) [Shuffle]_output: 3b063f02
/control_model/diffusion_model/input_blocks.1/input_blocks.1.1/transformer_blocks.0/ff/net/net.2/MatMul_output_0: 3c8a460c
(Unnamed Layer* 601) [Constant]_output: 3b06ab28
(Unnamed Layer* 602) [Shuffle]_output: 3b06ab28
/control_model/control_model/input_blocks.1/input_blocks.1.1/transformer_blocks.0/ff/net/net.2/MatMul_output_0: 3cf55ecc
(Unnamed Layer* 604) [Constant]_output: 3a5e1f23
(Unnamed Layer* 605) [Shuffle]_output: 3a5e1f23
/control_model/diffusion_model/input_blocks.1/input_blocks.1.1/transformer_blocks.0/ff/net/net.2/Add_output_0: 3c9e642c
(Unnamed Layer* 607) [Constant]_output: 3a53fb1d
(Unnamed Layer* 608) [Shuffle]_output: 3a53fb1d
/control_model/control_model/input_blocks.1/input_blocks.1.1/transformer_blocks.0/ff/net/net.2/Add_output_0: 3cef1eed
/control_model/diffusion_model/input_blocks.1/input_blocks.1.1/transformer_blocks.0/Add_2_output_0: 3c5cf90c
/control_model/control_model/input_blocks.1/input_blocks.1.1/transformer_blocks.0/Add_2_output_0: 3d054eb1
/control_model/diffusion_model/input_blocks.1/input_blocks.1.1/Reshape_2_output_0: 3c5cf90c
/control_model/control_model/input_blocks.1/input_blocks.1.1/Reshape_2_output_0: 3d054eb1
/control_model/diffusion_model/input_blocks.1/input_blocks.1.1/Transpose_1_output_0: 3c5cf90c
/control_model/control_model/input_blocks.1/input_blocks.1.1/Transpose_1_output_0: 3d054eb1
/control_model/diffusion_model/input_blocks.1/input_blocks.1.1/proj_out/Conv_output_0: 3c45396a
/control_model/control_model/input_blocks.1/input_blocks.1.1/proj_out/Conv_output_0: 3d01144e
/control_model/diffusion_model/input_blocks.1/input_blocks.1.1/Add_output_0: 3d3f845b
/control_model/control_model/input_blocks.1/input_blocks.1.1/Add_output_0: 3d82bff4
/control_model/diffusion_model/input_blocks.2/input_blocks.2.0/in_layers/in_layers.0/Reshape_output_0: 3d3f845b
/control_model/control_model/zero_convs.1/zero_convs.1.0/Conv_output_0: 3c2ec2fe
/control_model/control_model/input_blocks.2/input_blocks.2.0/in_layers/in_layers.0/Reshape_output_0: 3d82bff4
(Unnamed Layer* 625) [Shuffle]_output: 3d3f845b
(Unnamed Layer* 626) [PluginV2DynamicExt]_output: 3d5cc379
/control_model/diffusion_model/input_blocks.2/input_blocks.2.0/in_layers/in_layers.0/InstanceNormalization_output_0: 3d5cc379
(Unnamed Layer* 628) [Shuffle]_output: 3d82bff4
(Unnamed Layer* 629) [PluginV2DynamicExt]_output: 3d3962b0
/control_model/control_model/input_blocks.2/input_blocks.2.0/in_layers/in_layers.0/InstanceNormalization_output_0: 3d3962b0
/control_model/diffusion_model/input_blocks.2/input_blocks.2.0/in_layers/in_layers.0/Reshape_1_output_0: 3d5cc379
/control_model/diffusion_model/Add_11_output_0: 3d5a8500
/control_model/control_model/input_blocks.2/input_blocks.2.0/in_layers/in_layers.0/Reshape_1_output_0: 3d3962b0
(Unnamed Layer* 634) [Constant]_output: 3bced070
(Unnamed Layer* 635) [Shuffle]_output: 3bced070
/control_model/diffusion_model/input_blocks.2/input_blocks.2.0/in_layers/in_layers.0/Mul_output_0: 3cc917cf
(Unnamed Layer* 637) [Constant]_output: 3bca50ad
(Unnamed Layer* 638) [Shuffle]_output: 3bca50ad
/control_model/control_model/input_blocks.2/input_blocks.2.0/in_layers/in_layers.0/Mul_output_0: 3cb5181c
(Unnamed Layer* 640) [Constant]_output: 3af89105
(Unnamed Layer* 641) [Shuffle]_output: 3af89105
/control_model/diffusion_model/input_blocks.2/input_blocks.2.0/in_layers/in_layers.0/Add_output_0: 3cbc974c
(Unnamed Layer* 643) [Constant]_output: 3af88499
(Unnamed Layer* 644) [Shuffle]_output: 3af88499
/control_model/control_model/input_blocks.2/input_blocks.2.0/in_layers/in_layers.0/Add_output_0: 3cab87ab
/control_model/diffusion_model/input_blocks.2/input_blocks.2.0/in_layers/in_layers.1/Sigmoid_output_0: 3be6987c
/control_model/control_model/input_blocks.2/input_blocks.2.0/in_layers/in_layers.1/Sigmoid_output_0: 3bde47f8
/control_model/diffusion_model/input_blocks.2/input_blocks.2.0/in_layers/in_layers.1/Mul_output_0: 3c146668
/control_model/control_model/input_blocks.2/input_blocks.2.0/in_layers/in_layers.1/Mul_output_0: 3c30e136
/control_model/diffusion_model/input_blocks.2/input_blocks.2.0/in_layers/in_layers.2/Conv_output_0: 3cc0e3a0
/control_model/control_model/input_blocks.2/input_blocks.2.0/in_layers/in_layers.2/Conv_output_0: 3c8eb378
/control_model/diffusion_model/input_blocks.2/input_blocks.2.0/Add_output_0: 3d184c1f
/control_model/control_model/input_blocks.2/input_blocks.2.0/Add_output_0: 3ca9ff7b
/control_model/diffusion_model/input_blocks.2/input_blocks.2.0/out_layers/out_layers.0/Reshape_output_0: 3d184c1f
/control_model/control_model/input_blocks.2/input_blocks.2.0/out_layers/out_layers.0/Reshape_output_0: 3ca9ff7b
(Unnamed Layer* 656) [Shuffle]_output: 3d184c1f
(Unnamed Layer* 657) [PluginV2DynamicExt]_output: 3d4a109f
/control_model/diffusion_model/input_blocks.2/input_blocks.2.0/out_layers/out_layers.0/InstanceNormalization_output_0: 3d4a109f
(Unnamed Layer* 659) [Shuffle]_output: 3ca9ff7b
(Unnamed Layer* 660) [PluginV2DynamicExt]_output: 3d1d9210
/control_model/control_model/input_blocks.2/input_blocks.2.0/out_layers/out_layers.0/InstanceNormalization_output_0: 3d1d9210
/control_model/diffusion_model/input_blocks.2/input_blocks.2.0/out_layers/out_layers.0/Reshape_1_output_0: 3d4a109f
/control_model/control_model/input_blocks.2/input_blocks.2.0/out_layers/out_layers.0/Reshape_1_output_0: 3d1d9210
(Unnamed Layer* 664) [Constant]_output: 3c1117d3
(Unnamed Layer* 665) [Shuffle]_output: 3c1117d3
/control_model/diffusion_model/input_blocks.2/input_blocks.2.0/out_layers/out_layers.0/Mul_output_0: 3d17c2c8
(Unnamed Layer* 667) [Constant]_output: 3c0cadff
(Unnamed Layer* 668) [Shuffle]_output: 3c0cadff
/control_model/control_model/input_blocks.2/input_blocks.2.0/out_layers/out_layers.0/Mul_output_0: 3cfb60c3
(Unnamed Layer* 670) [Constant]_output: 3b6bcca1
(Unnamed Layer* 671) [Shuffle]_output: 3b6bcca1
/control_model/diffusion_model/input_blocks.2/input_blocks.2.0/out_layers/out_layers.0/Add_output_0: 3d2400a8
(Unnamed Layer* 673) [Constant]_output: 3b4d0e44
(Unnamed Layer* 674) [Shuffle]_output: 3b4d0e44
/control_model/control_model/input_blocks.2/input_blocks.2.0/out_layers/out_layers.0/Add_output_0: 3d085ea8
/control_model/diffusion_model/input_blocks.2/input_blocks.2.0/out_layers/out_layers.1/Sigmoid_output_0: 3bf236cc
/control_model/control_model/input_blocks.2/input_blocks.2.0/out_layers/out_layers.1/Sigmoid_output_0: 3bf23f5c
/control_model/diffusion_model/input_blocks.2/input_blocks.2.0/out_layers/out_layers.1/Mul_output_0: 3c5ced48
/control_model/control_model/input_blocks.2/input_blocks.2.0/out_layers/out_layers.1/Mul_output_0: 3c415df9
/control_model/diffusion_model/input_blocks.2/input_blocks.2.0/out_layers/out_layers.3/Conv_output_0: 3c9ed032
/control_model/control_model/input_blocks.2/input_blocks.2.0/out_layers/out_layers.3/Conv_output_0: 3cbac561
/control_model/diffusion_model/input_blocks.2/input_blocks.2.0/Add_1_output_0: 3d5be772
/control_model/control_model/input_blocks.2/input_blocks.2.0/Add_1_output_0: 3d88efd2
/control_model/diffusion_model/input_blocks.2/input_blocks.2.1/norm/Reshape_output_0: 3d5be772
/control_model/control_model/input_blocks.2/input_blocks.2.1/norm/Reshape_output_0: 3d88efd2
(Unnamed Layer* 686) [Shuffle]_output: 3d5be772
(Unnamed Layer* 687) [PluginV2DynamicExt]_output: 3d6e27c1
/control_model/diffusion_model/input_blocks.2/input_blocks.2.1/norm/InstanceNormalization_output_0: 3d6e27c1
(Unnamed Layer* 689) [Shuffle]_output: 3d88efd2
(Unnamed Layer* 690) [PluginV2DynamicExt]_output: 3d4ba60e
/control_model/control_model/input_blocks.2/input_blocks.2.1/norm/InstanceNormalization_output_0: 3d4ba60e
/control_model/diffusion_model/input_blocks.2/input_blocks.2.1/norm/Reshape_1_output_0: 3d6e27c1
/control_model/control_model/input_blocks.2/input_blocks.2.1/norm/Reshape_1_output_0: 3d4ba60e
(Unnamed Layer* 694) [Constant]_output: 3b96aac1
(Unnamed Layer* 695) [Shuffle]_output: 3b96aac1
/control_model/diffusion_model/input_blocks.2/input_blocks.2.1/norm/Mul_output_0: 3c93beb0
(Unnamed Layer* 697) [Constant]_output: 3b8f7503
(Unnamed Layer* 698) [Shuffle]_output: 3b8f7503
/control_model/control_model/input_blocks.2/input_blocks.2.1/norm/Mul_output_0: 3c7631f3
(Unnamed Layer* 700) [Constant]_output: 3ab0aef5
(Unnamed Layer* 701) [Shuffle]_output: 3ab0aef5
/control_model/diffusion_model/input_blocks.2/input_blocks.2.1/norm/Add_output_0: 3c916bcb
(Unnamed Layer* 703) [Constant]_output: 3ab03b01
(Unnamed Layer* 704) [Shuffle]_output: 3ab03b01
/control_model/control_model/input_blocks.2/input_blocks.2.1/norm/Add_output_0: 3c74204d
/control_model/diffusion_model/input_blocks.2/input_blocks.2.1/proj_in/Conv_output_0: 3cb7e854
/control_model/control_model/input_blocks.2/input_blocks.2.1/proj_in/Conv_output_0: 3c8dd190
/control_model/diffusion_model/input_blocks.2/input_blocks.2.1/Transpose_output_0: 3cb7e854
/control_model/control_model/input_blocks.2/input_blocks.2.1/Transpose_output_0: 3c8dd190
/control_model/diffusion_model/input_blocks.2/input_blocks.2.1/Reshape_1_output_0: 3cb7e854
/control_model/control_model/input_blocks.2/input_blocks.2.1/Reshape_1_output_0: 3c8dd190
/control_model/diffusion_model/input_blocks.2/input_blocks.2.1/transformer_blocks.0/norm1/LayerNormalization_output_0: 3cdf4803
/control_model/control_model/input_blocks.2/input_blocks.2.1/transformer_blocks.0/norm1/LayerNormalization_output_0: 3cca2de2
(Unnamed Layer* 724) [Constant]_output: 3b3ca39c
(Unnamed Layer* 725) [Shuffle]_output: 3b3ca39c
/control_model/diffusion_model/input_blocks.2/input_blocks.2.1/transformer_blocks.0/attn1/to_q/MatMul_output_0: 3d62c4d7
(Unnamed Layer* 727) [Constant]_output: 3b4e2248
(Unnamed Layer* 728) [Shuffle]_output: 3b4e2248
/control_model/diffusion_model/input_blocks.2/input_blocks.2.1/transformer_blocks.0/attn1/to_k/MatMul_output_0: 3d71a119
(Unnamed Layer* 730) [Constant]_output: 3b0cdc2b
(Unnamed Layer* 731) [Shuffle]_output: 3b0cdc2b
/control_model/diffusion_model/input_blocks.2/input_blocks.2.1/transformer_blocks.0/attn1/to_v/MatMul_output_0: 3d0a634f
(Unnamed Layer* 733) [Constant]_output: 3b3640e3
(Unnamed Layer* 734) [Shuffle]_output: 3b3640e3
/control_model/control_model/input_blocks.2/input_blocks.2.1/transformer_blocks.0/attn1/to_q/MatMul_output_0: 3d46903f
(Unnamed Layer* 736) [Constant]_output: 3b4f61e7
(Unnamed Layer* 737) [Shuffle]_output: 3b4f61e7
/control_model/control_model/input_blocks.2/input_blocks.2.1/transformer_blocks.0/attn1/to_k/MatMul_output_0: 3d63001f
(Unnamed Layer* 739) [Constant]_output: 3af84d47
(Unnamed Layer* 740) [Shuffle]_output: 3af84d47
/control_model/control_model/input_blocks.2/input_blocks.2.1/transformer_blocks.0/attn1/to_v/MatMul_output_0: 3ce6a6e8
/control_model/diffusion_model/input_blocks.2/input_blocks.2.1/transformer_blocks.0/attn1/Reshape_output_0: 3d62c4d7
/control_model/diffusion_model/input_blocks.2/input_blocks.2.1/transformer_blocks.0/attn1/Reshape_2_output_0: 3d71a119
/control_model/diffusion_model/input_blocks.2/input_blocks.2.1/transformer_blocks.0/attn1/Reshape_4_output_0: 3d0a634f
/control_model/control_model/input_blocks.2/input_blocks.2.1/transformer_blocks.0/attn1/Reshape_output_0: 3d46903f
/control_model/control_model/input_blocks.2/input_blocks.2.1/transformer_blocks.0/attn1/Reshape_2_output_0: 3d63001f
/control_model/control_model/input_blocks.2/input_blocks.2.1/transformer_blocks.0/attn1/Reshape_4_output_0: 3ce6a6e8
/control_model/diffusion_model/input_blocks.2/input_blocks.2.1/transformer_blocks.0/attn1/Transpose_output_0: 3d62c4d7
/control_model/diffusion_model/input_blocks.2/input_blocks.2.1/transformer_blocks.0/attn1/Transpose_1_output_0: 3d71a119
/control_model/diffusion_model/input_blocks.2/input_blocks.2.1/transformer_blocks.0/attn1/Transpose_2_output_0: 3d0a634f
/control_model/control_model/input_blocks.2/input_blocks.2.1/transformer_blocks.0/attn1/Transpose_output_0: 3d46903f
/control_model/control_model/input_blocks.2/input_blocks.2.1/transformer_blocks.0/attn1/Transpose_1_output_0: 3d63001f
/control_model/control_model/input_blocks.2/input_blocks.2.1/transformer_blocks.0/attn1/Transpose_2_output_0: 3ce6a6e8
/control_model/diffusion_model/input_blocks.2/input_blocks.2.1/transformer_blocks.0/attn1/Reshape_1_output_0: 3d62c4d7
/control_model/diffusion_model/input_blocks.2/input_blocks.2.1/transformer_blocks.0/attn1/Reshape_3_output_0: 3d71a119
/control_model/diffusion_model/input_blocks.2/input_blocks.2.1/transformer_blocks.0/attn1/Reshape_5_output_0: 3d0a634f
/control_model/control_model/input_blocks.2/input_blocks.2.1/transformer_blocks.0/attn1/Reshape_1_output_0: 3d46903f
/control_model/control_model/input_blocks.2/input_blocks.2.1/transformer_blocks.0/attn1/Reshape_3_output_0: 3d63001f
/control_model/control_model/input_blocks.2/input_blocks.2.1/transformer_blocks.0/attn1/Reshape_5_output_0: 3ce6a6e8
/control_model/diffusion_model/input_blocks.2/input_blocks.2.1/transformer_blocks.0/attn1/Einsum_output_0: 3f80a543
/control_model/control_model/input_blocks.2/input_blocks.2.1/transformer_blocks.0/attn1/Einsum_output_0: 3f67828c
(Unnamed Layer* 763) [Shuffle]_output: 3aa3392c
/control_model/diffusion_model/input_blocks.2/input_blocks.2.1/transformer_blocks.0/attn1/Mul_6_output_0: 3e22b9a6
(Unnamed Layer* 766) [Shuffle]_output: 3aa3392c
/control_model/control_model/input_blocks.2/input_blocks.2.1/transformer_blocks.0/attn1/Mul_6_output_0: 3e126b74
(Unnamed Layer* 768) [Softmax]_output: 3a19e0e9
(Unnamed Layer* 770) [Softmax]_output: 3a5ad375
/control_model/diffusion_model/input_blocks.2/input_blocks.2.1/transformer_blocks.0/attn1/Einsum_1_output_0: 3c9e7661
/control_model/control_model/input_blocks.2/input_blocks.2.1/transformer_blocks.0/attn1/Einsum_1_output_0: 3c9169ae
/control_model/diffusion_model/input_blocks.2/input_blocks.2.1/transformer_blocks.0/attn1/Reshape_6_output_0: 3c9e7661
/control_model/control_model/input_blocks.2/input_blocks.2.1/transformer_blocks.0/attn1/Reshape_6_output_0: 3c9169ae
/control_model/diffusion_model/input_blocks.2/input_blocks.2.1/transformer_blocks.0/attn1/Transpose_3_output_0: 3c9e7661
/control_model/control_model/input_blocks.2/input_blocks.2.1/transformer_blocks.0/attn1/Transpose_3_output_0: 3c9169ae
/control_model/diffusion_model/input_blocks.2/input_blocks.2.1/transformer_blocks.0/attn1/Reshape_7_output_0: 3c9e7661
/control_model/control_model/input_blocks.2/input_blocks.2.1/transformer_blocks.0/attn1/Reshape_7_output_0: 3c9169ae
(Unnamed Layer* 780) [Constant]_output: 3af05530
(Unnamed Layer* 781) [Shuffle]_output: 3af05530
/control_model/diffusion_model/input_blocks.2/input_blocks.2.1/transformer_blocks.0/attn1/to_out/to_out.0/MatMul_output_0: 3c95b552
(Unnamed Layer* 783) [Constant]_output: 3af3b8e3
(Unnamed Layer* 784) [Shuffle]_output: 3af3b8e3
/control_model/control_model/input_blocks.2/input_blocks.2.1/transformer_blocks.0/attn1/to_out/to_out.0/MatMul_output_0: 3c7e1299
(Unnamed Layer* 786) [Constant]_output: 3aa8f0e1
(Unnamed Layer* 787) [Shuffle]_output: 3aa8f0e1
/control_model/diffusion_model/input_blocks.2/input_blocks.2.1/transformer_blocks.0/attn1/to_out/to_out.0/Add_output_0: 3c9f6c1e
(Unnamed Layer* 789) [Constant]_output: 3a9c166c
(Unnamed Layer* 790) [Shuffle]_output: 3a9c166c
/control_model/control_model/input_blocks.2/input_blocks.2.1/transformer_blocks.0/attn1/to_out/to_out.0/Add_output_0: 3c856841
/control_model/diffusion_model/input_blocks.2/input_blocks.2.1/transformer_blocks.0/Add_output_0: 3d0994f2
/control_model/control_model/input_blocks.2/input_blocks.2.1/transformer_blocks.0/Add_output_0: 3c8b45e2
/control_model/diffusion_model/input_blocks.2/input_blocks.2.1/transformer_blocks.0/norm2/LayerNormalization_output_0: 3cdfe244
/control_model/control_model/input_blocks.2/input_blocks.2.1/transformer_blocks.0/norm2/LayerNormalization_output_0: 3c60e404
(Unnamed Layer* 804) [Constant]_output: 3b18e2c3
(Unnamed Layer* 805) [Shuffle]_output: 3b18e2c3
/control_model/diffusion_model/input_blocks.2/input_blocks.2.1/transformer_blocks.0/attn2/to_q/MatMul_output_0: 3c792c86
(Unnamed Layer* 807) [Constant]_output: 3b0be320
(Unnamed Layer* 808) [Shuffle]_output: 3b0be320
/control_model/control_model/input_blocks.2/input_blocks.2.1/transformer_blocks.0/attn2/to_q/MatMul_output_0: 3c79ccbe
/control_model/diffusion_model/input_blocks.2/input_blocks.2.1/transformer_blocks.0/attn2/Reshape_output_0: 3c792c86
/control_model/control_model/input_blocks.2/input_blocks.2.1/transformer_blocks.0/attn2/Reshape_output_0: 3c79ccbe
/control_model/diffusion_model/input_blocks.2/input_blocks.2.1/transformer_blocks.0/attn2/Transpose_output_0: 3c792c86
/control_model/control_model/input_blocks.2/input_blocks.2.1/transformer_blocks.0/attn2/Transpose_output_0: 3c79ccbe
/control_model/diffusion_model/input_blocks.2/input_blocks.2.1/transformer_blocks.0/attn2/Reshape_1_output_0: 3c792c86
/control_model/control_model/input_blocks.2/input_blocks.2.1/transformer_blocks.0/attn2/Reshape_1_output_0: 3c79ccbe
/control_model/diffusion_model/input_blocks.2/input_blocks.2.1/transformer_blocks.0/attn2/Einsum_output_0: 3ef82843
/control_model/control_model/input_blocks.2/input_blocks.2.1/transformer_blocks.0/attn2/Einsum_output_0: 3f10b720
(Unnamed Layer* 819) [Shuffle]_output: 3aa3392c
/control_model/diffusion_model/input_blocks.2/input_blocks.2.1/transformer_blocks.0/attn2/Mul_2_output_0: 3d9cf2ce
(Unnamed Layer* 822) [Shuffle]_output: 3aa3392c
/control_model/control_model/input_blocks.2/input_blocks.2.1/transformer_blocks.0/attn2/Mul_2_output_0: 3db70d52
(Unnamed Layer* 824) [Softmax]_output: 3a826565
(Unnamed Layer* 826) [Softmax]_output: 3a816dc5
/control_model/diffusion_model/input_blocks.2/input_blocks.2.1/transformer_blocks.0/attn2/Einsum_1_output_0: 3c80e218
/control_model/control_model/input_blocks.2/input_blocks.2.1/transformer_blocks.0/attn2/Einsum_1_output_0: 3c7c8798
/control_model/diffusion_model/input_blocks.2/input_blocks.2.1/transformer_blocks.0/attn2/Reshape_6_output_0: 3c80e218
/control_model/control_model/input_blocks.2/input_blocks.2.1/transformer_blocks.0/attn2/Reshape_6_output_0: 3c7c8798
/control_model/diffusion_model/input_blocks.2/input_blocks.2.1/transformer_blocks.0/attn2/Transpose_3_output_0: 3c80e218
/control_model/control_model/input_blocks.2/input_blocks.2.1/transformer_blocks.0/attn2/Transpose_3_output_0: 3c7c8798
/control_model/diffusion_model/input_blocks.2/input_blocks.2.1/transformer_blocks.0/attn2/Reshape_7_output_0: 3c80e218
/control_model/control_model/input_blocks.2/input_blocks.2.1/transformer_blocks.0/attn2/Reshape_7_output_0: 3c7c8798
(Unnamed Layer* 836) [Constant]_output: 3a62f64d
(Unnamed Layer* 837) [Shuffle]_output: 3a62f64d
/control_model/diffusion_model/input_blocks.2/input_blocks.2.1/transformer_blocks.0/attn2/to_out/to_out.0/MatMul_output_0: 3c070801
(Unnamed Layer* 839) [Constant]_output: 3a2a94e8
(Unnamed Layer* 840) [Shuffle]_output: 3a2a94e8
/control_model/control_model/input_blocks.2/input_blocks.2.1/transformer_blocks.0/attn2/to_out/to_out.0/MatMul_output_0: 3c0961ad
(Unnamed Layer* 842) [Constant]_output: 3a31901d
(Unnamed Layer* 843) [Shuffle]_output: 3a31901d
/control_model/diffusion_model/input_blocks.2/input_blocks.2.1/transformer_blocks.0/attn2/to_out/to_out.0/Add_output_0: 3c380018
(Unnamed Layer* 845) [Constant]_output: 3a829ae1
(Unnamed Layer* 846) [Shuffle]_output: 3a829ae1
/control_model/control_model/input_blocks.2/input_blocks.2.1/transformer_blocks.0/attn2/to_out/to_out.0/Add_output_0: 3bf2d2fc
/control_model/diffusion_model/input_blocks.2/input_blocks.2.1/transformer_blocks.0/Add_1_output_0: 3d31ea5b
/control_model/control_model/input_blocks.2/input_blocks.2.1/transformer_blocks.0/Add_1_output_0: 3c926911
/control_model/diffusion_model/input_blocks.2/input_blocks.2.1/transformer_blocks.0/norm3/LayerNormalization_output_0: 3ca03b93
/control_model/control_model/input_blocks.2/input_blocks.2.1/transformer_blocks.0/norm3/LayerNormalization_output_0: 3cb475eb
(Unnamed Layer* 860) [Constant]_output: 3b21f9eb
(Unnamed Layer* 861) [Shuffle]_output: 3b21f9eb
/control_model/diffusion_model/input_blocks.2/input_blocks.2.1/transformer_blocks.0/ff/net/net.0/proj/MatMul_output_0: 3cdfe2c2
(Unnamed Layer* 863) [Constant]_output: 3b3f2b93
(Unnamed Layer* 864) [Shuffle]_output: 3b3f2b93
/control_model/control_model/input_blocks.2/input_blocks.2.1/transformer_blocks.0/ff/net/net.0/proj/MatMul_output_0: 3d1625f6
(Unnamed Layer* 866) [Constant]_output: 3ae178c7
(Unnamed Layer* 867) [Shuffle]_output: 3ae178c7
/control_model/diffusion_model/input_blocks.2/input_blocks.2.1/transformer_blocks.0/ff/net/net.0/proj/Add_output_0: 3ce7f3c8
(Unnamed Layer* 869) [Constant]_output: 3af40fd8
(Unnamed Layer* 870) [Shuffle]_output: 3af40fd8
/control_model/control_model/input_blocks.2/input_blocks.2.1/transformer_blocks.0/ff/net/net.0/proj/Add_output_0: 3d1ebf19
/control_model/diffusion_model/input_blocks.2/input_blocks.2.1/transformer_blocks.0/ff/net/net.0/Split_output_0: 3cbbdfcd
/control_model/diffusion_model/input_blocks.2/input_blocks.2.1/transformer_blocks.0/ff/net/net.0/Split_output_1: 3ce82da0
/control_model/control_model/input_blocks.2/input_blocks.2.1/transformer_blocks.0/ff/net/net.0/Split_output_0: 3d0a473b
/control_model/control_model/input_blocks.2/input_blocks.2.1/transformer_blocks.0/ff/net/net.0/Split_output_1: 3d245b1c
(Unnamed Layer* 877) [Shuffle]_output: 3c367d3d
/control_model/diffusion_model/input_blocks.2/input_blocks.2.1/transformer_blocks.0/ff/net/net.0/Div_output_0: 3ca42cc1
(Unnamed Layer* 880) [Shuffle]_output: 3c367d3d
/control_model/control_model/input_blocks.2/input_blocks.2.1/transformer_blocks.0/ff/net/net.0/Div_output_0: 3ce86f31
/control_model/diffusion_model/input_blocks.2/input_blocks.2.1/transformer_blocks.0/ff/net/net.0/Erf_output_0: 3c00e6db
/control_model/control_model/input_blocks.2/input_blocks.2.1/transformer_blocks.0/ff/net/net.0/Erf_output_0: 3c021425
(Unnamed Layer* 885) [Shuffle]_output: 3c010a14
/control_model/diffusion_model/input_blocks.2/input_blocks.2.1/transformer_blocks.0/ff/net/net.0/Add_output_0: 3c820ecf
(Unnamed Layer* 888) [Shuffle]_output: 3c010a14
/control_model/control_model/input_blocks.2/input_blocks.2.1/transformer_blocks.0/ff/net/net.0/Add_output_0: 3c80f14f
/control_model/diffusion_model/input_blocks.2/input_blocks.2.1/transformer_blocks.0/ff/net/net.0/Mul_output_0: 3d0ec9ae
/control_model/control_model/input_blocks.2/input_blocks.2.1/transformer_blocks.0/ff/net/net.0/Mul_output_0: 3d6f14bd
(Unnamed Layer* 893) [Shuffle]_output: 3b810a14
/control_model/diffusion_model/input_blocks.2/input_blocks.2.1/transformer_blocks.0/ff/net/net.0/Mul_1_output_0: 3c8ec9ae
(Unnamed Layer* 896) [Shuffle]_output: 3b810a14
/control_model/control_model/input_blocks.2/input_blocks.2.1/transformer_blocks.0/ff/net/net.0/Mul_1_output_0: 3cef14bd
/control_model/diffusion_model/input_blocks.2/input_blocks.2.1/transformer_blocks.0/ff/net/net.0/Mul_2_output_0: 3c56bfcc
/control_model/control_model/input_blocks.2/input_blocks.2.1/transformer_blocks.0/ff/net/net.0/Mul_2_output_0: 3d1c9a30
(Unnamed Layer* 900) [Constant]_output: 3b0e2ae6
(Unnamed Layer* 901) [Shuffle]_output: 3b0e2ae6
/control_model/diffusion_model/input_blocks.2/input_blocks.2.1/transformer_blocks.0/ff/net/net.2/MatMul_output_0: 3ce18436
(Unnamed Layer* 903) [Constant]_output: 3b16b8ab
(Unnamed Layer* 904) [Shuffle]_output: 3b16b8ab
/control_model/control_model/input_blocks.2/input_blocks.2.1/transformer_blocks.0/ff/net/net.2/MatMul_output_0: 3dd4afe6
(Unnamed Layer* 906) [Constant]_output: 3a0a4171
(Unnamed Layer* 907) [Shuffle]_output: 3a0a4171
/control_model/diffusion_model/input_blocks.2/input_blocks.2.1/transformer_blocks.0/ff/net/net.2/Add_output_0: 3ce69917
(Unnamed Layer* 909) [Constant]_output: 3a009021
(Unnamed Layer* 910) [Shuffle]_output: 3a009021
/control_model/control_model/input_blocks.2/input_blocks.2.1/transformer_blocks.0/ff/net/net.2/Add_output_0: 3dd135e2
/control_model/diffusion_model/input_blocks.2/input_blocks.2.1/transformer_blocks.0/Add_2_output_0: 3d152c81
/control_model/control_model/input_blocks.2/input_blocks.2.1/transformer_blocks.0/Add_2_output_0: 3dd3427a
/control_model/diffusion_model/input_blocks.2/input_blocks.2.1/Reshape_2_output_0: 3d152c81
/control_model/control_model/input_blocks.2/input_blocks.2.1/Reshape_2_output_0: 3dd3427a
/control_model/diffusion_model/input_blocks.2/input_blocks.2.1/Transpose_1_output_0: 3d152c81
/control_model/control_model/input_blocks.2/input_blocks.2.1/Transpose_1_output_0: 3dd3427a
/control_model/diffusion_model/input_blocks.2/input_blocks.2.1/proj_out/Conv_output_0: 3d0d444b
/control_model/control_model/input_blocks.2/input_blocks.2.1/proj_out/Conv_output_0: 3da3ddf7
/control_model/diffusion_model/input_blocks.2/input_blocks.2.1/Add_output_0: 3d36b160
/control_model/control_model/input_blocks.2/input_blocks.2.1/Add_output_0: 3ddc2d30
/control_model/diffusion_model/input_blocks.3/input_blocks.3.0/op/Conv_output_0: 3d85f786
/control_model/control_model/zero_convs.2/zero_convs.2.0/Conv_output_0: 3d17dfa4
/control_model/control_model/input_blocks.3/input_blocks.3.0/op/Conv_output_0: 3e3bfcca
/control_model/diffusion_model/input_blocks.4/input_blocks.4.0/in_layers/in_layers.0/Reshape_output_0: 3d85f786
/control_model/diffusion_model/input_blocks.4/input_blocks.4.0/skip_connection/Conv_output_0: 3d304490
/control_model/control_model/zero_convs.3/zero_convs.3.0/Conv_output_0: 3d4f776e
/control_model/control_model/input_blocks.4/input_blocks.4.0/in_layers/in_layers.0/Reshape_output_0: 3e3bfcca
/control_model/control_model/input_blocks.4/input_blocks.4.0/skip_connection/Conv_output_0: 3df55925
(Unnamed Layer* 932) [Shuffle]_output: 3d85f786
(Unnamed Layer* 933) [PluginV2DynamicExt]_output: 3d68fd4f
/control_model/diffusion_model/input_blocks.4/input_blocks.4.0/in_layers/in_layers.0/InstanceNormalization_output_0: 3d68fd4f
/control_model/diffusion_model/Add_10_output_0: 3d721ba6
(Unnamed Layer* 936) [Shuffle]_output: 3e3bfcca
(Unnamed Layer* 937) [PluginV2DynamicExt]_output: 3d21e502
/control_model/control_model/input_blocks.4/input_blocks.4.0/in_layers/in_layers.0/InstanceNormalization_output_0: 3d21e502
/control_model/diffusion_model/input_blocks.4/input_blocks.4.0/in_layers/in_layers.0/Reshape_1_output_0: 3d68fd4f
/control_model/diffusion_model/Add_9_output_0: 3da02392
/control_model/control_model/input_blocks.4/input_blocks.4.0/in_layers/in_layers.0/Reshape_1_output_0: 3d21e502
(Unnamed Layer* 942) [Constant]_output: 3bb07bf4
(Unnamed Layer* 943) [Shuffle]_output: 3bb07bf4
/control_model/diffusion_model/input_blocks.4/input_blocks.4.0/in_layers/in_layers.0/Mul_output_0: 3c86ecfb
(Unnamed Layer* 945) [Constant]_output: 3bb0dd68
(Unnamed Layer* 946) [Shuffle]_output: 3bb0dd68
/control_model/control_model/input_blocks.4/input_blocks.4.0/in_layers/in_layers.0/Mul_output_0: 3c890d19
(Unnamed Layer* 948) [Constant]_output: 3af1ab84
(Unnamed Layer* 949) [Shuffle]_output: 3af1ab84
/control_model/diffusion_model/input_blocks.4/input_blocks.4.0/in_layers/in_layers.0/Add_output_0: 3c90a469
(Unnamed Layer* 951) [Constant]_output: 3af49a6f
(Unnamed Layer* 952) [Shuffle]_output: 3af49a6f
/control_model/control_model/input_blocks.4/input_blocks.4.0/in_layers/in_layers.0/Add_output_0: 3c8cf3b1
/control_model/diffusion_model/input_blocks.4/input_blocks.4.0/in_layers/in_layers.1/Sigmoid_output_0: 3bdc738d
/control_model/control_model/input_blocks.4/input_blocks.4.0/in_layers/in_layers.1/Sigmoid_output_0: 3bd400d9
/control_model/diffusion_model/input_blocks.4/input_blocks.4.0/in_layers/in_layers.1/Mul_output_0: 3c313cdd
/control_model/control_model/input_blocks.4/input_blocks.4.0/in_layers/in_layers.1/Mul_output_0: 3c1a1672
/control_model/diffusion_model/input_blocks.4/input_blocks.4.0/in_layers/in_layers.2/Conv_output_0: 3d9c2a2c
/control_model/control_model/input_blocks.4/input_blocks.4.0/in_layers/in_layers.2/Conv_output_0: 3d120b6a
/control_model/diffusion_model/input_blocks.4/input_blocks.4.0/Add_output_0: 3de75b56
/control_model/control_model/input_blocks.4/input_blocks.4.0/Add_output_0: 3d49e894
/control_model/diffusion_model/input_blocks.4/input_blocks.4.0/out_layers/out_layers.0/Reshape_output_0: 3de75b56
/control_model/control_model/input_blocks.4/input_blocks.4.0/out_layers/out_layers.0/Reshape_output_0: 3d49e894
(Unnamed Layer* 964) [Shuffle]_output: 3de75b56
(Unnamed Layer* 965) [PluginV2DynamicExt]_output: 3d7a92df
/control_model/diffusion_model/input_blocks.4/input_blocks.4.0/out_layers/out_layers.0/InstanceNormalization_output_0: 3d7a92df
(Unnamed Layer* 967) [Shuffle]_output: 3d49e894
(Unnamed Layer* 968) [PluginV2DynamicExt]_output: 3d4d358f
/control_model/control_model/input_blocks.4/input_blocks.4.0/out_layers/out_layers.0/InstanceNormalization_output_0: 3d4d358f
/control_model/diffusion_model/input_blocks.4/input_blocks.4.0/out_layers/out_layers.0/Reshape_1_output_0: 3d7a92df
/control_model/control_model/input_blocks.4/input_blocks.4.0/out_layers/out_layers.0/Reshape_1_output_0: 3d4d358f
(Unnamed Layer* 972) [Constant]_output: 3c321986
(Unnamed Layer* 973) [Shuffle]_output: 3c321986
/control_model/diffusion_model/input_blocks.4/input_blocks.4.0/out_layers/out_layers.0/Mul_output_0: 3d5139ed
(Unnamed Layer* 975) [Constant]_output: 3c2f9f7e
(Unnamed Layer* 976) [Shuffle]_output: 3c2f9f7e
/control_model/control_model/input_blocks.4/input_blocks.4.0/out_layers/out_layers.0/Mul_output_0: 3d3794ae
(Unnamed Layer* 978) [Constant]_output: 3b848846
(Unnamed Layer* 979) [Shuffle]_output: 3b848846
/control_model/diffusion_model/input_blocks.4/input_blocks.4.0/out_layers/out_layers.0/Add_output_0: 3d457a22
(Unnamed Layer* 981) [Constant]_output: 3b8723a7
(Unnamed Layer* 982) [Shuffle]_output: 3b8723a7
/control_model/control_model/input_blocks.4/input_blocks.4.0/out_layers/out_layers.0/Add_output_0: 3d3fd3af
/control_model/diffusion_model/input_blocks.4/input_blocks.4.0/out_layers/out_layers.1/Sigmoid_output_0: 3bdfae16
/control_model/control_model/input_blocks.4/input_blocks.4.0/out_layers/out_layers.1/Sigmoid_output_0: 3bfbc906
/control_model/diffusion_model/input_blocks.4/input_blocks.4.0/out_layers/out_layers.1/Mul_output_0: 3c19bf3c
/control_model/control_model/input_blocks.4/input_blocks.4.0/out_layers/out_layers.1/Mul_output_0: 3cb1fa35
/control_model/diffusion_model/input_blocks.4/input_blocks.4.0/out_layers/out_layers.3/Conv_output_0: 3cecf2c6
/control_model/control_model/input_blocks.4/input_blocks.4.0/out_layers/out_layers.3/Conv_output_0: 3ce91050
/control_model/diffusion_model/input_blocks.4/input_blocks.4.0/Add_1_output_0: 3d53ea6e
/control_model/control_model/input_blocks.4/input_blocks.4.0/Add_1_output_0: 3dfa6a42
/control_model/diffusion_model/input_blocks.4/input_blocks.4.1/norm/Reshape_output_0: 3d53ea6e
/control_model/control_model/input_blocks.4/input_blocks.4.1/norm/Reshape_output_0: 3dfa6a42
(Unnamed Layer* 994) [Shuffle]_output: 3d53ea6e
(Unnamed Layer* 995) [PluginV2DynamicExt]_output: 3d757f8d
/control_model/diffusion_model/input_blocks.4/input_blocks.4.1/norm/InstanceNormalization_output_0: 3d757f8d
(Unnamed Layer* 997) [Shuffle]_output: 3dfa6a42
(Unnamed Layer* 998) [PluginV2DynamicExt]_output: 3d52f0e6
/control_model/control_model/input_blocks.4/input_blocks.4.1/norm/InstanceNormalization_output_0: 3d52f0e6
/control_model/diffusion_model/input_blocks.4/input_blocks.4.1/norm/Reshape_1_output_0: 3d757f8d
/control_model/control_model/input_blocks.4/input_blocks.4.1/norm/Reshape_1_output_0: 3d52f0e6
(Unnamed Layer* 1002) [Constant]_output: 3b5d2150
(Unnamed Layer* 1003) [Shuffle]_output: 3b5d2150
/control_model/diffusion_model/input_blocks.4/input_blocks.4.1/norm/Mul_output_0: 3c371ed5
(Unnamed Layer* 1005) [Constant]_output: 3b5964f6
(Unnamed Layer* 1006) [Shuffle]_output: 3b5964f6
/control_model/control_model/input_blocks.4/input_blocks.4.1/norm/Mul_output_0: 3c336325
(Unnamed Layer* 1008) [Constant]_output: 3acadca9
(Unnamed Layer* 1009) [Shuffle]_output: 3acadca9
/control_model/diffusion_model/input_blocks.4/input_blocks.4.1/norm/Add_output_0: 3c3442c7
(Unnamed Layer* 1011) [Constant]_output: 3aae86cd
(Unnamed Layer* 1012) [Shuffle]_output: 3aae86cd
/control_model/control_model/input_blocks.4/input_blocks.4.1/norm/Add_output_0: 3c3670dc
/control_model/diffusion_model/input_blocks.4/input_blocks.4.1/proj_in/Conv_output_0: 3d3047ba
/control_model/control_model/input_blocks.4/input_blocks.4.1/proj_in/Conv_output_0: 3d02a92b
/control_model/diffusion_model/input_blocks.4/input_blocks.4.1/Transpose_output_0: 3d3047ba
/control_model/control_model/input_blocks.4/input_blocks.4.1/Transpose_output_0: 3d02a92b
/control_model/diffusion_model/input_blocks.4/input_blocks.4.1/Reshape_1_output_0: 3d3047ba
/control_model/control_model/input_blocks.4/input_blocks.4.1/Reshape_1_output_0: 3d02a92b
/control_model/diffusion_model/input_blocks.4/input_blocks.4.1/transformer_blocks.0/norm1/LayerNormalization_output_0: 3ce7c900
/control_model/control_model/input_blocks.4/input_blocks.4.1/transformer_blocks.0/norm1/LayerNormalization_output_0: 3cab9941
(Unnamed Layer* 1032) [Constant]_output: 3b374927
(Unnamed Layer* 1033) [Shuffle]_output: 3b374927
/control_model/diffusion_model/input_blocks.4/input_blocks.4.1/transformer_blocks.0/attn1/to_q/MatMul_output_0: 3d392ddb
(Unnamed Layer* 1035) [Constant]_output: 3b5a5112
(Unnamed Layer* 1036) [Shuffle]_output: 3b5a5112
/control_model/diffusion_model/input_blocks.4/input_blocks.4.1/transformer_blocks.0/attn1/to_k/MatMul_output_0: 3d3ef4a7
(Unnamed Layer* 1038) [Constant]_output: 3add020b
(Unnamed Layer* 1039) [Shuffle]_output: 3add020b
/control_model/diffusion_model/input_blocks.4/input_blocks.4.1/transformer_blocks.0/attn1/to_v/MatMul_output_0: 3ceaa961
(Unnamed Layer* 1041) [Constant]_output: 3b34a04d
(Unnamed Layer* 1042) [Shuffle]_output: 3b34a04d
/control_model/control_model/input_blocks.4/input_blocks.4.1/transformer_blocks.0/attn1/to_q/MatMul_output_0: 3d3d136e
(Unnamed Layer* 1044) [Constant]_output: 3b637b34
(Unnamed Layer* 1045) [Shuffle]_output: 3b637b34
/control_model/control_model/input_blocks.4/input_blocks.4.1/transformer_blocks.0/attn1/to_k/MatMul_output_0: 3d249525
(Unnamed Layer* 1047) [Constant]_output: 3af46669
(Unnamed Layer* 1048) [Shuffle]_output: 3af46669
/control_model/control_model/input_blocks.4/input_blocks.4.1/transformer_blocks.0/attn1/to_v/MatMul_output_0: 3d04f75f
/control_model/diffusion_model/input_blocks.4/input_blocks.4.1/transformer_blocks.0/attn1/Reshape_output_0: 3d392ddb
/control_model/diffusion_model/input_blocks.4/input_blocks.4.1/transformer_blocks.0/attn1/Reshape_2_output_0: 3d3ef4a7
/control_model/diffusion_model/input_blocks.4/input_blocks.4.1/transformer_blocks.0/attn1/Reshape_4_output_0: 3ceaa961
/control_model/control_model/input_blocks.4/input_blocks.4.1/transformer_blocks.0/attn1/Reshape_output_0: 3d3d136e
/control_model/control_model/input_blocks.4/input_blocks.4.1/transformer_blocks.0/attn1/Reshape_2_output_0: 3d249525
/control_model/control_model/input_blocks.4/input_blocks.4.1/transformer_blocks.0/attn1/Reshape_4_output_0: 3d04f75f
/control_model/diffusion_model/input_blocks.4/input_blocks.4.1/transformer_blocks.0/attn1/Transpose_output_0: 3d392ddb
/control_model/diffusion_model/input_blocks.4/input_blocks.4.1/transformer_blocks.0/attn1/Transpose_1_output_0: 3d3ef4a7
/control_model/diffusion_model/input_blocks.4/input_blocks.4.1/transformer_blocks.0/attn1/Transpose_2_output_0: 3ceaa961
/control_model/control_model/input_blocks.4/input_blocks.4.1/transformer_blocks.0/attn1/Transpose_output_0: 3d3d136e
/control_model/control_model/input_blocks.4/input_blocks.4.1/transformer_blocks.0/attn1/Transpose_1_output_0: 3d249525
/control_model/control_model/input_blocks.4/input_blocks.4.1/transformer_blocks.0/attn1/Transpose_2_output_0: 3d04f75f
/control_model/diffusion_model/input_blocks.4/input_blocks.4.1/transformer_blocks.0/attn1/Reshape_1_output_0: 3d392ddb
/control_model/diffusion_model/input_blocks.4/input_blocks.4.1/transformer_blocks.0/attn1/Reshape_3_output_0: 3d3ef4a7
/control_model/diffusion_model/input_blocks.4/input_blocks.4.1/transformer_blocks.0/attn1/Reshape_5_output_0: 3ceaa961
/control_model/control_model/input_blocks.4/input_blocks.4.1/transformer_blocks.0/attn1/Reshape_1_output_0: 3d3d136e
/control_model/control_model/input_blocks.4/input_blocks.4.1/transformer_blocks.0/attn1/Reshape_3_output_0: 3d249525
/control_model/control_model/input_blocks.4/input_blocks.4.1/transformer_blocks.0/attn1/Reshape_5_output_0: 3d04f75f
/control_model/diffusion_model/input_blocks.4/input_blocks.4.1/transformer_blocks.0/attn1/Einsum_output_0: 3f53fcf4
/control_model/control_model/input_blocks.4/input_blocks.4.1/transformer_blocks.0/attn1/Einsum_output_0: 3f69ee8f
(Unnamed Layer* 1071) [Shuffle]_output: 3a66d528
/control_model/diffusion_model/input_blocks.4/input_blocks.4.1/transformer_blocks.0/attn1/Mul_6_output_0: 3dbd9ba0
(Unnamed Layer* 1074) [Shuffle]_output: 3a66d528
/control_model/control_model/input_blocks.4/input_blocks.4.1/transformer_blocks.0/attn1/Mul_6_output_0: 3dd0c232
(Unnamed Layer* 1076) [Softmax]_output: 3a6d4275
(Unnamed Layer* 1078) [Softmax]_output: 3a62c9a3
/control_model/diffusion_model/input_blocks.4/input_blocks.4.1/transformer_blocks.0/attn1/Einsum_1_output_0: 3c679ba1
/control_model/control_model/input_blocks.4/input_blocks.4.1/transformer_blocks.0/attn1/Einsum_1_output_0: 3cb3e5b4
/control_model/diffusion_model/input_blocks.4/input_blocks.4.1/transformer_blocks.0/attn1/Reshape_6_output_0: 3c679ba1
/control_model/control_model/input_blocks.4/input_blocks.4.1/transformer_blocks.0/attn1/Reshape_6_output_0: 3cb3e5b4
/control_model/diffusion_model/input_blocks.4/input_blocks.4.1/transformer_blocks.0/attn1/Transpose_3_output_0: 3c679ba1
/control_model/control_model/input_blocks.4/input_blocks.4.1/transformer_blocks.0/attn1/Transpose_3_output_0: 3cb3e5b4
/control_model/diffusion_model/input_blocks.4/input_blocks.4.1/transformer_blocks.0/attn1/Reshape_7_output_0: 3c679ba1
/control_model/control_model/input_blocks.4/input_blocks.4.1/transformer_blocks.0/attn1/Reshape_7_output_0: 3cb3e5b4
(Unnamed Layer* 1088) [Constant]_output: 3b2c5e98
(Unnamed Layer* 1089) [Shuffle]_output: 3b2c5e98
/control_model/diffusion_model/input_blocks.4/input_blocks.4.1/transformer_blocks.0/attn1/to_out/to_out.0/MatMul_output_0: 3cb5e896
(Unnamed Layer* 1091) [Constant]_output: 3b065cd6
(Unnamed Layer* 1092) [Shuffle]_output: 3b065cd6
/control_model/control_model/input_blocks.4/input_blocks.4.1/transformer_blocks.0/attn1/to_out/to_out.0/MatMul_output_0: 3d082d1d
(Unnamed Layer* 1094) [Constant]_output: 3a701326
(Unnamed Layer* 1095) [Shuffle]_output: 3a701326
/control_model/diffusion_model/input_blocks.4/input_blocks.4.1/transformer_blocks.0/attn1/to_out/to_out.0/Add_output_0: 3cce77dd
(Unnamed Layer* 1097) [Constant]_output: 3a7da59e
(Unnamed Layer* 1098) [Shuffle]_output: 3a7da59e
/control_model/control_model/input_blocks.4/input_blocks.4.1/transformer_blocks.0/attn1/to_out/to_out.0/Add_output_0: 3cff905b
/control_model/diffusion_model/input_blocks.4/input_blocks.4.1/transformer_blocks.0/Add_output_0: 3d198d29
/control_model/control_model/input_blocks.4/input_blocks.4.1/transformer_blocks.0/Add_output_0: 3cbea8e8
/control_model/diffusion_model/input_blocks.4/input_blocks.4.1/transformer_blocks.0/norm2/LayerNormalization_output_0: 3cef4b28
/control_model/control_model/input_blocks.4/input_blocks.4.1/transformer_blocks.0/norm2/LayerNormalization_output_0: 3c719008
(Unnamed Layer* 1112) [Constant]_output: 3b0b2f8a
(Unnamed Layer* 1113) [Shuffle]_output: 3b0b2f8a
/control_model/diffusion_model/input_blocks.4/input_blocks.4.1/transformer_blocks.0/attn2/to_q/MatMul_output_0: 3d151e64
(Unnamed Layer* 1115) [Constant]_output: 3b09e3c5
(Unnamed Layer* 1116) [Shuffle]_output: 3b09e3c5
/control_model/control_model/input_blocks.4/input_blocks.4.1/transformer_blocks.0/attn2/to_q/MatMul_output_0: 3d578ced
/control_model/diffusion_model/input_blocks.4/input_blocks.4.1/transformer_blocks.0/attn2/Reshape_output_0: 3d151e64
/control_model/control_model/input_blocks.4/input_blocks.4.1/transformer_blocks.0/attn2/Reshape_output_0: 3d578ced
/control_model/diffusion_model/input_blocks.4/input_blocks.4.1/transformer_blocks.0/attn2/Transpose_output_0: 3d151e64
/control_model/control_model/input_blocks.4/input_blocks.4.1/transformer_blocks.0/attn2/Transpose_output_0: 3d578ced
/control_model/diffusion_model/input_blocks.4/input_blocks.4.1/transformer_blocks.0/attn2/Reshape_1_output_0: 3d151e64
/control_model/control_model/input_blocks.4/input_blocks.4.1/transformer_blocks.0/attn2/Reshape_1_output_0: 3d578ced
/control_model/diffusion_model/input_blocks.4/input_blocks.4.1/transformer_blocks.0/attn2/Einsum_output_0: 3f681cba
/control_model/control_model/input_blocks.4/input_blocks.4.1/transformer_blocks.0/attn2/Einsum_output_0: 3fc4fb42
(Unnamed Layer* 1127) [Shuffle]_output: 3a66d528
/control_model/diffusion_model/input_blocks.4/input_blocks.4.1/transformer_blocks.0/attn2/Mul_2_output_0: 3dcf9b84
(Unnamed Layer* 1130) [Shuffle]_output: 3a66d528
/control_model/control_model/input_blocks.4/input_blocks.4.1/transformer_blocks.0/attn2/Mul_2_output_0: 3e302f82
(Unnamed Layer* 1132) [Softmax]_output: 3c010d34
(Unnamed Layer* 1134) [Softmax]_output: 3c010a14
/control_model/diffusion_model/input_blocks.4/input_blocks.4.1/transformer_blocks.0/attn2/Einsum_1_output_0: 3c151759
/control_model/control_model/input_blocks.4/input_blocks.4.1/transformer_blocks.0/attn2/Einsum_1_output_0: 3b81e668
/control_model/diffusion_model/input_blocks.4/input_blocks.4.1/transformer_blocks.0/attn2/Reshape_6_output_0: 3c151759
/control_model/control_model/input_blocks.4/input_blocks.4.1/transformer_blocks.0/attn2/Reshape_6_output_0: 3b81e668
/control_model/diffusion_model/input_blocks.4/input_blocks.4.1/transformer_blocks.0/attn2/Transpose_3_output_0: 3c151759
/control_model/control_model/input_blocks.4/input_blocks.4.1/transformer_blocks.0/attn2/Transpose_3_output_0: 3b81e668
/control_model/diffusion_model/input_blocks.4/input_blocks.4.1/transformer_blocks.0/attn2/Reshape_7_output_0: 3c151759
/control_model/control_model/input_blocks.4/input_blocks.4.1/transformer_blocks.0/attn2/Reshape_7_output_0: 3b81e668
(Unnamed Layer* 1144) [Constant]_output: 3a67ba77
(Unnamed Layer* 1145) [Shuffle]_output: 3a67ba77
/control_model/diffusion_model/input_blocks.4/input_blocks.4.1/transformer_blocks.0/attn2/to_out/to_out.0/MatMul_output_0: 3bb072ab
(Unnamed Layer* 1147) [Constant]_output: 3a6052ee
(Unnamed Layer* 1148) [Shuffle]_output: 3a6052ee
/control_model/control_model/input_blocks.4/input_blocks.4.1/transformer_blocks.0/attn2/to_out/to_out.0/MatMul_output_0: 3b3f5f33
(Unnamed Layer* 1150) [Constant]_output: 3a7a74a3
(Unnamed Layer* 1151) [Shuffle]_output: 3a7a74a3
/control_model/diffusion_model/input_blocks.4/input_blocks.4.1/transformer_blocks.0/attn2/to_out/to_out.0/Add_output_0: 3c29cb72
(Unnamed Layer* 1153) [Constant]_output: 3a7a5c37
(Unnamed Layer* 1154) [Shuffle]_output: 3a7a5c37
/control_model/control_model/input_blocks.4/input_blocks.4.1/transformer_blocks.0/attn2/to_out/to_out.0/Add_output_0: 3afdff57
/control_model/diffusion_model/input_blocks.4/input_blocks.4.1/transformer_blocks.0/Add_1_output_0: 3d28d639
/control_model/control_model/input_blocks.4/input_blocks.4.1/transformer_blocks.0/Add_1_output_0: 3cd29370
/control_model/diffusion_model/input_blocks.4/input_blocks.4.1/transformer_blocks.0/norm3/LayerNormalization_output_0: 3c75a932
/control_model/control_model/input_blocks.4/input_blocks.4.1/transformer_blocks.0/norm3/LayerNormalization_output_0: 3c51dd89
(Unnamed Layer* 1168) [Constant]_output: 3b417711
(Unnamed Layer* 1169) [Shuffle]_output: 3b417711
/control_model/diffusion_model/input_blocks.4/input_blocks.4.1/transformer_blocks.0/ff/net/net.0/proj/MatMul_output_0: 3cdeef9f
(Unnamed Layer* 1171) [Constant]_output: 3b347b00
(Unnamed Layer* 1172) [Shuffle]_output: 3b347b00
/control_model/control_model/input_blocks.4/input_blocks.4.1/transformer_blocks.0/ff/net/net.0/proj/MatMul_output_0: 3d08542e
(Unnamed Layer* 1174) [Constant]_output: 3b4b4aa5
(Unnamed Layer* 1175) [Shuffle]_output: 3b4b4aa5
/control_model/diffusion_model/input_blocks.4/input_blocks.4.1/transformer_blocks.0/ff/net/net.0/proj/Add_output_0: 3cf0c360
(Unnamed Layer* 1177) [Constant]_output: 3b5bdd8d
(Unnamed Layer* 1178) [Shuffle]_output: 3b5bdd8d
/control_model/control_model/input_blocks.4/input_blocks.4.1/transformer_blocks.0/ff/net/net.0/proj/Add_output_0: 3d07fd46
/control_model/diffusion_model/input_blocks.4/input_blocks.4.1/transformer_blocks.0/ff/net/net.0/Split_output_0: 3cac72aa
/control_model/diffusion_model/input_blocks.4/input_blocks.4.1/transformer_blocks.0/ff/net/net.0/Split_output_1: 3cfeae82
/control_model/control_model/input_blocks.4/input_blocks.4.1/transformer_blocks.0/ff/net/net.0/Split_output_0: 3cd87395
/control_model/control_model/input_blocks.4/input_blocks.4.1/transformer_blocks.0/ff/net/net.0/Split_output_1: 3d0dedfa
(Unnamed Layer* 1185) [Shuffle]_output: 3c367d3d
/control_model/diffusion_model/input_blocks.4/input_blocks.4.1/transformer_blocks.0/ff/net/net.0/Div_output_0: 3cb4164f
(Unnamed Layer* 1188) [Shuffle]_output: 3c367d3d
/control_model/control_model/input_blocks.4/input_blocks.4.1/transformer_blocks.0/ff/net/net.0/Div_output_0: 3cc8b801
/control_model/diffusion_model/input_blocks.4/input_blocks.4.1/transformer_blocks.0/ff/net/net.0/Erf_output_0: 3c01116f
/control_model/control_model/input_blocks.4/input_blocks.4.1/transformer_blocks.0/ff/net/net.0/Erf_output_0: 3c0213ec
(Unnamed Layer* 1193) [Shuffle]_output: 3c010a14
/control_model/diffusion_model/input_blocks.4/input_blocks.4.1/transformer_blocks.0/ff/net/net.0/Add_output_0: 3c820d3f
(Unnamed Layer* 1196) [Shuffle]_output: 3c010a14
/control_model/control_model/input_blocks.4/input_blocks.4.1/transformer_blocks.0/ff/net/net.0/Add_output_0: 3c81118b
/control_model/diffusion_model/input_blocks.4/input_blocks.4.1/transformer_blocks.0/ff/net/net.0/Mul_output_0: 3d014995
/control_model/control_model/input_blocks.4/input_blocks.4.1/transformer_blocks.0/ff/net/net.0/Mul_output_0: 3d6eace0
(Unnamed Layer* 1201) [Shuffle]_output: 3b810a14
/control_model/diffusion_model/input_blocks.4/input_blocks.4.1/transformer_blocks.0/ff/net/net.0/Mul_1_output_0: 3c814995
(Unnamed Layer* 1204) [Shuffle]_output: 3b810a14
/control_model/control_model/input_blocks.4/input_blocks.4.1/transformer_blocks.0/ff/net/net.0/Mul_1_output_0: 3ceeace0
/control_model/diffusion_model/input_blocks.4/input_blocks.4.1/transformer_blocks.0/ff/net/net.0/Mul_2_output_0: 3c1f9719
/control_model/control_model/input_blocks.4/input_blocks.4.1/transformer_blocks.0/ff/net/net.0/Mul_2_output_0: 3cc87351
(Unnamed Layer* 1208) [Constant]_output: 3b17fe69
(Unnamed Layer* 1209) [Shuffle]_output: 3b17fe69
/control_model/diffusion_model/input_blocks.4/input_blocks.4.1/transformer_blocks.0/ff/net/net.2/MatMul_output_0: 3d303218
(Unnamed Layer* 1211) [Constant]_output: 3b1ffb97
(Unnamed Layer* 1212) [Shuffle]_output: 3b1ffb97
/control_model/control_model/input_blocks.4/input_blocks.4.1/transformer_blocks.0/ff/net/net.2/MatMul_output_0: 3d84ea2a
(Unnamed Layer* 1214) [Constant]_output: 3a11084c
(Unnamed Layer* 1215) [Shuffle]_output: 3a11084c
/control_model/diffusion_model/input_blocks.4/input_blocks.4.1/transformer_blocks.0/ff/net/net.2/Add_output_0: 3d39843d
(Unnamed Layer* 1217) [Constant]_output: 3a0f8f4a
(Unnamed Layer* 1218) [Shuffle]_output: 3a0f8f4a
/control_model/control_model/input_blocks.4/input_blocks.4.1/transformer_blocks.0/ff/net/net.2/Add_output_0: 3d7f3c1a
/control_model/diffusion_model/input_blocks.4/input_blocks.4.1/transformer_blocks.0/Add_2_output_0: 3cc09ed0
/control_model/control_model/input_blocks.4/input_blocks.4.1/transformer_blocks.0/Add_2_output_0: 3d8476db
/control_model/diffusion_model/input_blocks.4/input_blocks.4.1/Reshape_2_output_0: 3cc09ed0
/control_model/control_model/input_blocks.4/input_blocks.4.1/Reshape_2_output_0: 3d8476db
/control_model/diffusion_model/input_blocks.4/input_blocks.4.1/Transpose_1_output_0: 3cc09ed0
/control_model/control_model/input_blocks.4/input_blocks.4.1/Transpose_1_output_0: 3d8476db
/control_model/diffusion_model/input_blocks.4/input_blocks.4.1/proj_out/Conv_output_0: 3cba9b62
/control_model/control_model/input_blocks.4/input_blocks.4.1/proj_out/Conv_output_0: 3d6d536a
/control_model/diffusion_model/input_blocks.4/input_blocks.4.1/Add_output_0: 3d498054
/control_model/control_model/input_blocks.4/input_blocks.4.1/Add_output_0: 3e006dc7
/control_model/diffusion_model/input_blocks.5/input_blocks.5.0/in_layers/in_layers.0/Reshape_output_0: 3d498054
/control_model/control_model/zero_convs.4/zero_convs.4.0/Conv_output_0: 3cc71a55
/control_model/control_model/input_blocks.5/input_blocks.5.0/in_layers/in_layers.0/Reshape_output_0: 3e006dc7
(Unnamed Layer* 1235) [Shuffle]_output: 3d498054
(Unnamed Layer* 1236) [PluginV2DynamicExt]_output: 3d6f2e10
/control_model/diffusion_model/input_blocks.5/input_blocks.5.0/in_layers/in_layers.0/InstanceNormalization_output_0: 3d6f2e10
(Unnamed Layer* 1238) [Shuffle]_output: 3e006dc7
(Unnamed Layer* 1239) [PluginV2DynamicExt]_output: 3d4a1e6e
/control_model/control_model/input_blocks.5/input_blocks.5.0/in_layers/in_layers.0/InstanceNormalization_output_0: 3d4a1e6e
/control_model/diffusion_model/input_blocks.5/input_blocks.5.0/in_layers/in_layers.0/Reshape_1_output_0: 3d6f2e10
/control_model/diffusion_model/Add_8_output_0: 3d57f1fb
/control_model/control_model/input_blocks.5/input_blocks.5.0/in_layers/in_layers.0/Reshape_1_output_0: 3d4a1e6e
(Unnamed Layer* 1244) [Constant]_output: 3bb66d8f
(Unnamed Layer* 1245) [Shuffle]_output: 3bb66d8f
/control_model/diffusion_model/input_blocks.5/input_blocks.5.0/in_layers/in_layers.0/Mul_output_0: 3ca9f4d9
(Unnamed Layer* 1247) [Constant]_output: 3bc9cfaa
(Unnamed Layer* 1248) [Shuffle]_output: 3bc9cfaa
