TRT-8601-EntropyCalibration2
input.1: 3d507102
onnx::Slice_1: 3ccb2cb2
onnx::Slice_2: 3d2e7b70
onnx::MatMul_3: 3d87c475
onnx::Add_4: 3cf76a79
onnx::MatMul_5: 3d5537f8
onnx::Div_6: 3c6f9f22
onnx::Sub_7: 3c71f8b3
onnx::Mul_8: 3c345daa
/control_model/control_model/input_blocks.0/input_blocks.0.0/Conv_output_0: 3c9eea19
/control_model/control_model/Slice_output_0: 3d682426
(Unnamed Layer* 2) [Constant]_output: 3b233d7f
(Unnamed Layer* 3) [Shuffle]_output: 3b233d7f
/control_model/control_model/input_blocks.1/input_blocks.1.1/transformer_blocks.0/attn2/to_k/MatMul_output_0: 3da3b226
(Unnamed Layer* 5) [Constant]_output: 3a6c4d48
(Unnamed Layer* 6) [Shuffle]_output: 3a6c4d48
/control_model/control_model/input_blocks.1/input_blocks.1.1/transformer_blocks.0/attn2/to_v/MatMul_output_0: 3d1e8d94
/control_model/control_model/Slice_1_output_0: 3c064f2a
(Unnamed Layer* 9) [Constant]_output: 3b470c52
(Unnamed Layer* 10) [Shuffle]_output: 3b470c52
/control_model/control_model/input_blocks.2/input_blocks.2.1/transformer_blocks.0/attn2/to_k/MatMul_output_0: 3dbaa70f
(Unnamed Layer* 12) [Constant]_output: 3a966e88
(Unnamed Layer* 13) [Shuffle]_output: 3a966e88
/control_model/control_model/input_blocks.2/input_blocks.2.1/transformer_blocks.0/attn2/to_v/MatMul_output_0: 3d2c3187
/control_model/control_model/Slice_2_output_0: 3ce355ec
(Unnamed Layer* 16) [Constant]_output: 3b058cff
(Unnamed Layer* 17) [Shuffle]_output: 3b058cff
/control_model/control_model/input_blocks.4/input_blocks.4.1/transformer_blocks.0/attn2/to_k/MatMul_output_0: 3dac7761
(Unnamed Layer* 19) [Constant]_output: 3a95aca2
(Unnamed Layer* 20) [Shuffle]_output: 3a95aca2
/control_model/control_model/input_blocks.4/input_blocks.4.1/transformer_blocks.0/attn2/to_v/MatMul_output_0: 3d9eca49
/control_model/control_model/Slice_3_output_0: 3bb68a7a
(Unnamed Layer* 23) [Constant]_output: 3b0158a6
(Unnamed Layer* 24) [Shuffle]_output: 3b0158a6
/control_model/control_model/input_blocks.5/input_blocks.5.1/transformer_blocks.0/attn2/to_k/MatMul_output_0: 3dbb599a
(Unnamed Layer* 26) [Constant]_output: 3a962849
(Unnamed Layer* 27) [Shuffle]_output: 3a962849
/control_model/control_model/input_blocks.5/input_blocks.5.1/transformer_blocks.0/attn2/to_v/MatMul_output_0: 3dadace1
/control_model/control_model/Slice_4_output_0: 3cca8f15
(Unnamed Layer* 30) [Constant]_output: 3af60e58
(Unnamed Layer* 31) [Shuffle]_output: 3af60e58
/control_model/control_model/input_blocks.7/input_blocks.7.1/transformer_blocks.0/attn2/to_k/MatMul_output_0: 3d97a3e8
(Unnamed Layer* 33) [Constant]_output: 3a9c13e4
(Unnamed Layer* 34) [Shuffle]_output: 3a9c13e4
/control_model/control_model/input_blocks.7/input_blocks.7.1/transformer_blocks.0/attn2/to_v/MatMul_output_0: 3d3482a1
/control_model/control_model/Slice_5_output_0: 3c620cfd
(Unnamed Layer* 37) [Constant]_output: 3af11985
(Unnamed Layer* 38) [Shuffle]_output: 3af11985
/control_model/control_model/input_blocks.8/input_blocks.8.1/transformer_blocks.0/attn2/to_k/MatMul_output_0: 3db47de7
(Unnamed Layer* 40) [Constant]_output: 3aa75dd0
(Unnamed Layer* 41) [Shuffle]_output: 3aa75dd0
/control_model/control_model/input_blocks.8/input_blocks.8.1/transformer_blocks.0/attn2/to_v/MatMul_output_0: 3d297716
/control_model/control_model/Slice_6_output_0: 3c6a2437
/control_model/control_model/Slice_7_output_0: 3bb6959f
/control_model/control_model/Slice_8_output_0: 3c22b11d
(Unnamed Layer* 46) [Constant]_output: 3ad09cf4
(Unnamed Layer* 47) [Shuffle]_output: 3ad09cf4
/control_model/control_model/middle_block.1/transformer_blocks.0/attn2/to_k/MatMul_output_0: 3d9f8104
(Unnamed Layer* 49) [Constant]_output: 3ac9a451
(Unnamed Layer* 50) [Shuffle]_output: 3ac9a451
/control_model/control_model/middle_block.1/transformer_blocks.0/attn2/to_v/MatMul_output_0: 3d249e9b
/control_model/control_model/Slice_9_output_0: 3c1d79c3
/control_model/diffusion_model/input_blocks.0/input_blocks.0.0/Conv_output_0: 3ca0510f
/control_model/diffusion_model/Slice_output_0: 3d9137ee
(Unnamed Layer* 55) [Constant]_output: 3b27476a
(Unnamed Layer* 56) [Shuffle]_output: 3b27476a
/control_model/diffusion_model/input_blocks.1/input_blocks.1.1/transformer_blocks.0/attn2/to_k/MatMul_output_0: 3d9ff99a
(Unnamed Layer* 58) [Constant]_output: 3a8be35e
(Unnamed Layer* 59) [Shuffle]_output: 3a8be35e
/control_model/diffusion_model/input_blocks.1/input_blocks.1.1/transformer_blocks.0/attn2/to_v/MatMul_output_0: 3d1b4d0d
/control_model/diffusion_model/Slice_1_output_0: 3c9bfb0f
(Unnamed Layer* 62) [Constant]_output: 3b37a1d8
(Unnamed Layer* 63) [Shuffle]_output: 3b37a1d8
/control_model/diffusion_model/input_blocks.2/input_blocks.2.1/transformer_blocks.0/attn2/to_k/MatMul_output_0: 3dba40c9
(Unnamed Layer* 65) [Constant]_output: 3a54b2c8
(Unnamed Layer* 66) [Shuffle]_output: 3a54b2c8
/control_model/diffusion_model/input_blocks.2/input_blocks.2.1/transformer_blocks.0/attn2/to_v/MatMul_output_0: 3d26bca4
/control_model/diffusion_model/Slice_2_output_0: 3d128dac
(Unnamed Layer* 69) [Constant]_output: 3b04b0e5
(Unnamed Layer* 70) [Shuffle]_output: 3b04b0e5
/control_model/diffusion_model/input_blocks.4/input_blocks.4.1/transformer_blocks.0/attn2/to_k/MatMul_output_0: 3da4e1de
(Unnamed Layer* 72) [Constant]_output: 3a92b3b8
(Unnamed Layer* 73) [Shuffle]_output: 3a92b3b8
/control_model/diffusion_model/input_blocks.4/input_blocks.4.1/transformer_blocks.0/attn2/to_v/MatMul_output_0: 3da16ae8
/control_model/diffusion_model/Slice_3_output_0: 3caa18cb
(Unnamed Layer* 76) [Constant]_output: 3b0727e7
(Unnamed Layer* 77) [Shuffle]_output: 3b0727e7
/control_model/diffusion_model/input_blocks.5/input_blocks.5.1/transformer_blocks.0/attn2/to_k/MatMul_output_0: 3d997a14
(Unnamed Layer* 79) [Constant]_output: 3a926ffe
(Unnamed Layer* 80) [Shuffle]_output: 3a926ffe
/control_model/diffusion_model/input_blocks.5/input_blocks.5.1/transformer_blocks.0/attn2/to_v/MatMul_output_0: 3da25b79
/control_model/diffusion_model/Slice_4_output_0: 3d22af03
(Unnamed Layer* 83) [Constant]_output: 3aeb443c
(Unnamed Layer* 84) [Shuffle]_output: 3aeb443c
/control_model/diffusion_model/input_blocks.7/input_blocks.7.1/transformer_blocks.0/attn2/to_k/MatMul_output_0: 3d9a5e2a
(Unnamed Layer* 86) [Constant]_output: 3a9ff90a
(Unnamed Layer* 87) [Shuffle]_output: 3a9ff90a
/control_model/diffusion_model/input_blocks.7/input_blocks.7.1/transformer_blocks.0/attn2/to_v/MatMul_output_0: 3d28358f
/control_model/diffusion_model/Slice_5_output_0: 3ce49d5c
(Unnamed Layer* 90) [Constant]_output: 3b06006a
(Unnamed Layer* 91) [Shuffle]_output: 3b06006a
/control_model/diffusion_model/input_blocks.8/input_blocks.8.1/transformer_blocks.0/attn2/to_k/MatMul_output_0: 3db07075
(Unnamed Layer* 93) [Constant]_output: 3aa0ccba
(Unnamed Layer* 94) [Shuffle]_output: 3aa0ccba
/control_model/diffusion_model/input_blocks.8/input_blocks.8.1/transformer_blocks.0/attn2/to_v/MatMul_output_0: 3d265949
/control_model/diffusion_model/Slice_6_output_0: 3cfa5af1
/control_model/diffusion_model/Slice_7_output_0: 3c384564
/control_model/diffusion_model/Slice_8_output_0: 3ca6d554
(Unnamed Layer* 99) [Constant]_output: 3ad8de3f
(Unnamed Layer* 100) [Shuffle]_output: 3ad8de3f
/control_model/diffusion_model/middle_block.1/transformer_blocks.0/attn2/to_k/MatMul_output_0: 3d9c278b
(Unnamed Layer* 102) [Constant]_output: 3ac1fd46
(Unnamed Layer* 103) [Shuffle]_output: 3ac1fd46
/control_model/diffusion_model/middle_block.1/transformer_blocks.0/attn2/to_v/MatMul_output_0: 3d259980
/control_model/diffusion_model/Slice_9_output_0: 3ca63a13
/control_model/diffusion_model/Slice_10_output_0: 3c49398e
/control_model/diffusion_model/Slice_11_output_0: 3caa1208
/control_model/diffusion_model/Slice_12_output_0: 3c747b31
/control_model/diffusion_model/Slice_13_output_0: 3d0a9994
(Unnamed Layer* 110) [Constant]_output: 3b10281a
(Unnamed Layer* 111) [Shuffle]_output: 3b10281a
/control_model/diffusion_model/output_blocks.3/output_blocks.3.1/transformer_blocks.0/attn2/to_k/MatMul_output_0: 3da26a0e
(Unnamed Layer* 113) [Constant]_output: 3acf0355
(Unnamed Layer* 114) [Shuffle]_output: 3acf0355
/control_model/diffusion_model/output_blocks.3/output_blocks.3.1/transformer_blocks.0/attn2/to_v/MatMul_output_0: 3d194bb1
/control_model/diffusion_model/Slice_14_output_0: 3ce3d0c8
(Unnamed Layer* 117) [Constant]_output: 3b1f383e
(Unnamed Layer* 118) [Shuffle]_output: 3b1f383e
/control_model/diffusion_model/output_blocks.4/output_blocks.4.1/transformer_blocks.0/attn2/to_k/MatMul_output_0: 3db2a9ab
(Unnamed Layer* 120) [Constant]_output: 3ad97bfe
(Unnamed Layer* 121) [Shuffle]_output: 3ad97bfe
/control_model/diffusion_model/output_blocks.4/output_blocks.4.1/transformer_blocks.0/attn2/to_v/MatMul_output_0: 3d2fb524
/control_model/diffusion_model/Slice_15_output_0: 3d04307a
(Unnamed Layer* 124) [Constant]_output: 3b1dba89
(Unnamed Layer* 125) [Shuffle]_output: 3b1dba89
/control_model/diffusion_model/output_blocks.5/output_blocks.5.1/transformer_blocks.0/attn2/to_k/MatMul_output_0: 3da4628b
(Unnamed Layer* 127) [Constant]_output: 3add1573
(Unnamed Layer* 128) [Shuffle]_output: 3add1573
/control_model/diffusion_model/output_blocks.5/output_blocks.5.1/transformer_blocks.0/attn2/to_v/MatMul_output_0: 3d3fc4ab
/control_model/diffusion_model/Slice_16_output_0: 3cc61c5d
(Unnamed Layer* 131) [Constant]_output: 3b247906
(Unnamed Layer* 132) [Shuffle]_output: 3b247906
/control_model/diffusion_model/output_blocks.6/output_blocks.6.1/transformer_blocks.0/attn2/to_k/MatMul_output_0: 3dac7fc1
(Unnamed Layer* 134) [Constant]_output: 3b1137c2
(Unnamed Layer* 135) [Shuffle]_output: 3b1137c2
/control_model/diffusion_model/output_blocks.6/output_blocks.6.1/transformer_blocks.0/attn2/to_v/MatMul_output_0: 3d88b395
/control_model/diffusion_model/Slice_17_output_0: 3c803ad0
(Unnamed Layer* 138) [Constant]_output: 3b01aec8
(Unnamed Layer* 139) [Shuffle]_output: 3b01aec8
/control_model/diffusion_model/output_blocks.7/output_blocks.7.1/transformer_blocks.0/attn2/to_k/MatMul_output_0: 3d9ceabf
(Unnamed Layer* 141) [Constant]_output: 3acc2bd1
(Unnamed Layer* 142) [Shuffle]_output: 3acc2bd1
/control_model/diffusion_model/output_blocks.7/output_blocks.7.1/transformer_blocks.0/attn2/to_v/MatMul_output_0: 3d79d293
/control_model/diffusion_model/Slice_18_output_0: 3c81b475
(Unnamed Layer* 145) [Constant]_output: 3af1e64f
(Unnamed Layer* 146) [Shuffle]_output: 3af1e64f
/control_model/diffusion_model/output_blocks.8/output_blocks.8.1/transformer_blocks.0/attn2/to_k/MatMul_output_0: 3d8ce91e
(Unnamed Layer* 148) [Constant]_output: 3ab4c37e
(Unnamed Layer* 149) [Shuffle]_output: 3ab4c37e
/control_model/diffusion_model/output_blocks.8/output_blocks.8.1/transformer_blocks.0/attn2/to_v/MatMul_output_0: 3d5c1b1f
/control_model/diffusion_model/Slice_19_output_0: 3c3db315
(Unnamed Layer* 152) [Constant]_output: 3b608e3e
(Unnamed Layer* 153) [Shuffle]_output: 3b608e3e
/control_model/diffusion_model/output_blocks.9/output_blocks.9.1/transformer_blocks.0/attn2/to_k/MatMul_output_0: 3dbb3383
(Unnamed Layer* 155) [Constant]_output: 3aa5ed3a
(Unnamed Layer* 156) [Shuffle]_output: 3aa5ed3a
/control_model/diffusion_model/output_blocks.9/output_blocks.9.1/transformer_blocks.0/attn2/to_v/MatMul_output_0: 3d199235
/control_model/diffusion_model/Slice_20_output_0: 3c95eb7f
(Unnamed Layer* 159) [Constant]_output: 3b4c155f
(Unnamed Layer* 160) [Shuffle]_output: 3b4c155f
/control_model/diffusion_model/output_blocks.10/output_blocks.10.1/transformer_blocks.0/attn2/to_k/MatMul_output_0: 3dc1f989
(Unnamed Layer* 162) [Constant]_output: 3aa5e4c5
(Unnamed Layer* 163) [Shuffle]_output: 3aa5e4c5
/control_model/diffusion_model/output_blocks.10/output_blocks.10.1/transformer_blocks.0/attn2/to_v/MatMul_output_0: 3d4d1956
/control_model/diffusion_model/Slice_21_output_0: 3cbbcdce
(Unnamed Layer* 166) [Constant]_output: 3b4d5d47
(Unnamed Layer* 167) [Shuffle]_output: 3b4d5d47
/control_model/diffusion_model/output_blocks.11/output_blocks.11.1/transformer_blocks.0/attn2/to_k/MatMul_output_0: 3dd0e4af
(Unnamed Layer* 169) [Constant]_output: 3aac2eee
(Unnamed Layer* 170) [Shuffle]_output: 3aac2eee
/control_model/diffusion_model/output_blocks.11/output_blocks.11.1/transformer_blocks.0/attn2/to_v/MatMul_output_0: 3d4c3680
(Unnamed Layer* 172) [Constant]_output: 3b233d7f
(Unnamed Layer* 173) [Shuffle]_output: 3b233d7f
/control_model/control_model/input_blocks.1/input_blocks.1.1/transformer_blocks.0/attn2/to_k_1/MatMul_output_0: 3db2d7dd
(Unnamed Layer* 175) [Constant]_output: 3a6c4d48
(Unnamed Layer* 176) [Shuffle]_output: 3a6c4d48
/control_model/control_model/input_blocks.1/input_blocks.1.1/transformer_blocks.0/attn2/to_v_1/MatMul_output_0: 3ce6fac1
(Unnamed Layer* 178) [Constant]_output: 3b470c52
(Unnamed Layer* 179) [Shuffle]_output: 3b470c52
/control_model/control_model/input_blocks.2/input_blocks.2.1/transformer_blocks.0/attn2/to_k_1/MatMul_output_0: 3d8c426b
(Unnamed Layer* 181) [Constant]_output: 3a966e88
(Unnamed Layer* 182) [Shuffle]_output: 3a966e88
/control_model/control_model/input_blocks.2/input_blocks.2.1/transformer_blocks.0/attn2/to_v_1/MatMul_output_0: 3ce1f877
(Unnamed Layer* 184) [Constant]_output: 3b058cff
(Unnamed Layer* 185) [Shuffle]_output: 3b058cff
/control_model/control_model/input_blocks.4/input_blocks.4.1/transformer_blocks.0/attn2/to_k_1/MatMul_output_0: 3d8f07c5
(Unnamed Layer* 187) [Constant]_output: 3a95aca2
(Unnamed Layer* 188) [Shuffle]_output: 3a95aca2
/control_model/control_model/input_blocks.4/input_blocks.4.1/transformer_blocks.0/attn2/to_v_1/MatMul_output_0: 3d63c469
(Unnamed Layer* 190) [Constant]_output: 3b0158a6
(Unnamed Layer* 191) [Shuffle]_output: 3b0158a6
/control_model/control_model/input_blocks.5/input_blocks.5.1/transformer_blocks.0/attn2/to_k_1/MatMul_output_0: 3d86abee
(Unnamed Layer* 193) [Constant]_output: 3a962849
(Unnamed Layer* 194) [Shuffle]_output: 3a962849
/control_model/control_model/input_blocks.5/input_blocks.5.1/transformer_blocks.0/attn2/to_v_1/MatMul_output_0: 3d81e982
(Unnamed Layer* 196) [Constant]_output: 3af60e58
(Unnamed Layer* 197) [Shuffle]_output: 3af60e58
/control_model/control_model/input_blocks.7/input_blocks.7.1/transformer_blocks.0/attn2/to_k_1/MatMul_output_0: 3d61595c
(Unnamed Layer* 199) [Constant]_output: 3a9c13e4
(Unnamed Layer* 200) [Shuffle]_output: 3a9c13e4
/control_model/control_model/input_blocks.7/input_blocks.7.1/transformer_blocks.0/attn2/to_v_1/MatMul_output_0: 3cd8560d
(Unnamed Layer* 202) [Constant]_output: 3af11985
(Unnamed Layer* 203) [Shuffle]_output: 3af11985
/control_model/control_model/input_blocks.8/input_blocks.8.1/transformer_blocks.0/attn2/to_k_1/MatMul_output_0: 3d5128dd
(Unnamed Layer* 205) [Constant]_output: 3aa75dd0
(Unnamed Layer* 206) [Shuffle]_output: 3aa75dd0
/control_model/control_model/input_blocks.8/input_blocks.8.1/transformer_blocks.0/attn2/to_v_1/MatMul_output_0: 3cc32b24
(Unnamed Layer* 208) [Constant]_output: 3ad09cf4
(Unnamed Layer* 209) [Shuffle]_output: 3ad09cf4
/control_model/control_model/middle_block.1/transformer_blocks.0/attn2/to_k_1/MatMul_output_0: 3d47e3d0
(Unnamed Layer* 211) [Constant]_output: 3ac9a451
(Unnamed Layer* 212) [Shuffle]_output: 3ac9a451
/control_model/control_model/middle_block.1/transformer_blocks.0/attn2/to_v_1/MatMul_output_0: 3d0f6670
(Unnamed Layer* 214) [Constant]_output: 3b27476a
(Unnamed Layer* 215) [Shuffle]_output: 3b27476a
/control_model/diffusion_model/input_blocks.1/input_blocks.1.1/transformer_blocks.0/attn2/to_k_1/MatMul_output_0: 3d9fc1fe
(Unnamed Layer* 217) [Constant]_output: 3a8be35e
(Unnamed Layer* 218) [Shuffle]_output: 3a8be35e
/control_model/diffusion_model/input_blocks.1/input_blocks.1.1/transformer_blocks.0/attn2/to_v_1/MatMul_output_0: 3cfc563a
(Unnamed Layer* 220) [Constant]_output: 3b37a1d8
(Unnamed Layer* 221) [Shuffle]_output: 3b37a1d8
/control_model/diffusion_model/input_blocks.2/input_blocks.2.1/transformer_blocks.0/attn2/to_k_1/MatMul_output_0: 3d990bda
(Unnamed Layer* 223) [Constant]_output: 3a54b2c8
(Unnamed Layer* 224) [Shuffle]_output: 3a54b2c8
/control_model/diffusion_model/input_blocks.2/input_blocks.2.1/transformer_blocks.0/attn2/to_v_1/MatMul_output_0: 3d02c30b
(Unnamed Layer* 226) [Constant]_output: 3b04b0e5
(Unnamed Layer* 227) [Shuffle]_output: 3b04b0e5
/control_model/diffusion_model/input_blocks.4/input_blocks.4.1/transformer_blocks.0/attn2/to_k_1/MatMul_output_0: 3d93faa2
(Unnamed Layer* 229) [Constant]_output: 3a92b3b8
(Unnamed Layer* 230) [Shuffle]_output: 3a92b3b8
/control_model/diffusion_model/input_blocks.4/input_blocks.4.1/transformer_blocks.0/attn2/to_v_1/MatMul_output_0: 3d64824e
(Unnamed Layer* 232) [Constant]_output: 3b0727e7
(Unnamed Layer* 233) [Shuffle]_output: 3b0727e7
/control_model/diffusion_model/input_blocks.5/input_blocks.5.1/transformer_blocks.0/attn2/to_k_1/MatMul_output_0: 3da14d52
(Unnamed Layer* 235) [Constant]_output: 3a926ffe
(Unnamed Layer* 236) [Shuffle]_output: 3a926ffe
/control_model/diffusion_model/input_blocks.5/input_blocks.5.1/transformer_blocks.0/attn2/to_v_1/MatMul_output_0: 3d848849
(Unnamed Layer* 238) [Constant]_output: 3aeb443c
(Unnamed Layer* 239) [Shuffle]_output: 3aeb443c
/control_model/diffusion_model/input_blocks.7/input_blocks.7.1/transformer_blocks.0/attn2/to_k_1/MatMul_output_0: 3d77772d
(Unnamed Layer* 241) [Constant]_output: 3a9ff90a
(Unnamed Layer* 242) [Shuffle]_output: 3a9ff90a
/control_model/diffusion_model/input_blocks.7/input_blocks.7.1/transformer_blocks.0/attn2/to_v_1/MatMul_output_0: 3cea4076
(Unnamed Layer* 244) [Constant]_output: 3b06006a
(Unnamed Layer* 245) [Shuffle]_output: 3b06006a
/control_model/diffusion_model/input_blocks.8/input_blocks.8.1/transformer_blocks.0/attn2/to_k_1/MatMul_output_0: 3d6815fd
(Unnamed Layer* 247) [Constant]_output: 3aa0ccba
(Unnamed Layer* 248) [Shuffle]_output: 3aa0ccba
/control_model/diffusion_model/input_blocks.8/input_blocks.8.1/transformer_blocks.0/attn2/to_v_1/MatMul_output_0: 3cc4835a
(Unnamed Layer* 250) [Constant]_output: 3ad8de3f
(Unnamed Layer* 251) [Shuffle]_output: 3ad8de3f
/control_model/diffusion_model/middle_block.1/transformer_blocks.0/attn2/to_k_1/MatMul_output_0: 3d4d912a
(Unnamed Layer* 253) [Constant]_output: 3ac1fd46
(Unnamed Layer* 254) [Shuffle]_output: 3ac1fd46
/control_model/diffusion_model/middle_block.1/transformer_blocks.0/attn2/to_v_1/MatMul_output_0: 3d0d38bc
(Unnamed Layer* 256) [Constant]_output: 3b10281a
(Unnamed Layer* 257) [Shuffle]_output: 3b10281a
/control_model/diffusion_model/output_blocks.3/output_blocks.3.1/transformer_blocks.0/attn2/to_k_1/MatMul_output_0: 3d3cc6da
(Unnamed Layer* 259) [Constant]_output: 3acf0355
(Unnamed Layer* 260) [Shuffle]_output: 3acf0355
/control_model/diffusion_model/output_blocks.3/output_blocks.3.1/transformer_blocks.0/attn2/to_v_1/MatMul_output_0: 3d0047a9
(Unnamed Layer* 262) [Constant]_output: 3b1f383e
(Unnamed Layer* 263) [Shuffle]_output: 3b1f383e
/control_model/diffusion_model/output_blocks.4/output_blocks.4.1/transformer_blocks.0/attn2/to_k_1/MatMul_output_0: 3d23bf36
(Unnamed Layer* 265) [Constant]_output: 3ad97bfe
(Unnamed Layer* 266) [Shuffle]_output: 3ad97bfe
/control_model/diffusion_model/output_blocks.4/output_blocks.4.1/transformer_blocks.0/attn2/to_v_1/MatMul_output_0: 3d13dd00
(Unnamed Layer* 268) [Constant]_output: 3b1dba89
(Unnamed Layer* 269) [Shuffle]_output: 3b1dba89
/control_model/diffusion_model/output_blocks.5/output_blocks.5.1/transformer_blocks.0/attn2/to_k_1/MatMul_output_0: 3d38d208
(Unnamed Layer* 271) [Constant]_output: 3add1573
(Unnamed Layer* 272) [Shuffle]_output: 3add1573
/control_model/diffusion_model/output_blocks.5/output_blocks.5.1/transformer_blocks.0/attn2/to_v_1/MatMul_output_0: 3d1c4e3e
(Unnamed Layer* 274) [Constant]_output: 3b247906
(Unnamed Layer* 275) [Shuffle]_output: 3b247906
/control_model/diffusion_model/output_blocks.6/output_blocks.6.1/transformer_blocks.0/attn2/to_k_1/MatMul_output_0: 3d5b556c
(Unnamed Layer* 277) [Constant]_output: 3b1137c2
(Unnamed Layer* 278) [Shuffle]_output: 3b1137c2
/control_model/diffusion_model/output_blocks.6/output_blocks.6.1/transformer_blocks.0/attn2/to_v_1/MatMul_output_0: 3d332219
(Unnamed Layer* 280) [Constant]_output: 3b01aec8
(Unnamed Layer* 281) [Shuffle]_output: 3b01aec8
/control_model/diffusion_model/output_blocks.7/output_blocks.7.1/transformer_blocks.0/attn2/to_k_1/MatMul_output_0: 3d8806d4
(Unnamed Layer* 283) [Constant]_output: 3acc2bd1
(Unnamed Layer* 284) [Shuffle]_output: 3acc2bd1
/control_model/diffusion_model/output_blocks.7/output_blocks.7.1/transformer_blocks.0/attn2/to_v_1/MatMul_output_0: 3d32c00e
(Unnamed Layer* 286) [Constant]_output: 3af1e64f
(Unnamed Layer* 287) [Shuffle]_output: 3af1e64f
/control_model/diffusion_model/output_blocks.8/output_blocks.8.1/transformer_blocks.0/attn2/to_k_1/MatMul_output_0: 3d6ec564
(Unnamed Layer* 289) [Constant]_output: 3ab4c37e
(Unnamed Layer* 290) [Shuffle]_output: 3ab4c37e
/control_model/diffusion_model/output_blocks.8/output_blocks.8.1/transformer_blocks.0/attn2/to_v_1/MatMul_output_0: 3d038774
(Unnamed Layer* 292) [Constant]_output: 3b608e3e
(Unnamed Layer* 293) [Shuffle]_output: 3b608e3e
/control_model/diffusion_model/output_blocks.9/output_blocks.9.1/transformer_blocks.0/attn2/to_k_1/MatMul_output_0: 3d96bab1
(Unnamed Layer* 295) [Constant]_output: 3aa5ed3a
(Unnamed Layer* 296) [Shuffle]_output: 3aa5ed3a
/control_model/diffusion_model/output_blocks.9/output_blocks.9.1/transformer_blocks.0/attn2/to_v_1/MatMul_output_0: 3cd0f374
(Unnamed Layer* 298) [Constant]_output: 3b4c155f
(Unnamed Layer* 299) [Shuffle]_output: 3b4c155f
/control_model/diffusion_model/output_blocks.10/output_blocks.10.1/transformer_blocks.0/attn2/to_k_1/MatMul_output_0: 3da1faf6
(Unnamed Layer* 301) [Constant]_output: 3aa5e4c5
(Unnamed Layer* 302) [Shuffle]_output: 3aa5e4c5
/control_model/diffusion_model/output_blocks.10/output_blocks.10.1/transformer_blocks.0/attn2/to_v_1/MatMul_output_0: 3d172c2e
(Unnamed Layer* 304) [Constant]_output: 3b4d5d47
(Unnamed Layer* 305) [Shuffle]_output: 3b4d5d47
/control_model/diffusion_model/output_blocks.11/output_blocks.11.1/transformer_blocks.0/attn2/to_k_1/MatMul_output_0: 3da20610
(Unnamed Layer* 307) [Constant]_output: 3aac2eee
(Unnamed Layer* 308) [Shuffle]_output: 3aac2eee
/control_model/diffusion_model/output_blocks.11/output_blocks.11.1/transformer_blocks.0/attn2/to_v_1/MatMul_output_0: 3d1808cf
(Unnamed Layer* 311) [Shuffle]_output: 3c010a14
/Sub_2_output_0: 3c00dba4
/Sqrt_1_output_0: 3c79e536
/control_model/control_model/Add_output_0: 3cf52668
/control_model/control_model/input_blocks.1/input_blocks.1.1/transformer_blocks.0/attn2/Reshape_2_output_0: 3da3b226
/control_model/control_model/input_blocks.1/input_blocks.1.1/transformer_blocks.0/attn2/Reshape_4_output_0: 3d1e8d94
/control_model/control_model/input_blocks.2/input_blocks.2.1/transformer_blocks.0/attn2/Reshape_2_output_0: 3dbaa70f
/control_model/control_model/input_blocks.2/input_blocks.2.1/transformer_blocks.0/attn2/Reshape_4_output_0: 3d2c3187
/control_model/control_model/input_blocks.4/input_blocks.4.1/transformer_blocks.0/attn2/Reshape_2_output_0: 3dac7761
/control_model/control_model/input_blocks.4/input_blocks.4.1/transformer_blocks.0/attn2/Reshape_4_output_0: 3d9eca49
/control_model/control_model/input_blocks.5/input_blocks.5.1/transformer_blocks.0/attn2/Reshape_2_output_0: 3dbb599a
/control_model/control_model/input_blocks.5/input_blocks.5.1/transformer_blocks.0/attn2/Reshape_4_output_0: 3dadace1
/control_model/control_model/input_blocks.7/input_blocks.7.1/transformer_blocks.0/attn2/Reshape_2_output_0: 3d97a3e8
/control_model/control_model/input_blocks.7/input_blocks.7.1/transformer_blocks.0/attn2/Reshape_4_output_0: 3d3482a1
/control_model/control_model/input_blocks.8/input_blocks.8.1/transformer_blocks.0/attn2/Reshape_2_output_0: 3db47de7
/control_model/control_model/input_blocks.8/input_blocks.8.1/transformer_blocks.0/attn2/Reshape_4_output_0: 3d297716
/control_model/control_model/middle_block.1/transformer_blocks.0/attn2/Reshape_2_output_0: 3d9f8104
/control_model/control_model/middle_block.1/transformer_blocks.0/attn2/Reshape_4_output_0: 3d249e9b
/control_model/diffusion_model/input_blocks.1/input_blocks.1.0/in_layers/in_layers.0/Reshape_output_0: 3ca0510f
/control_model/diffusion_model/input_blocks.1/input_blocks.1.1/transformer_blocks.0/attn2/Reshape_2_output_0: 3d9ff99a
/control_model/diffusion_model/input_blocks.1/input_blocks.1.1/transformer_blocks.0/attn2/Reshape_4_output_0: 3d1b4d0d
/control_model/diffusion_model/input_blocks.2/input_blocks.2.1/transformer_blocks.0/attn2/Reshape_2_output_0: 3dba40c9
/control_model/diffusion_model/input_blocks.2/input_blocks.2.1/transformer_blocks.0/attn2/Reshape_4_output_0: 3d26bca4
/control_model/diffusion_model/input_blocks.4/input_blocks.4.1/transformer_blocks.0/attn2/Reshape_2_output_0: 3da4e1de
/control_model/diffusion_model/input_blocks.4/input_blocks.4.1/transformer_blocks.0/attn2/Reshape_4_output_0: 3da16ae8
/control_model/diffusion_model/input_blocks.5/input_blocks.5.1/transformer_blocks.0/attn2/Reshape_2_output_0: 3d997a14
/control_model/diffusion_model/input_blocks.5/input_blocks.5.1/transformer_blocks.0/attn2/Reshape_4_output_0: 3da25b79
/control_model/diffusion_model/input_blocks.7/input_blocks.7.1/transformer_blocks.0/attn2/Reshape_2_output_0: 3d9a5e2a
/control_model/diffusion_model/input_blocks.7/input_blocks.7.1/transformer_blocks.0/attn2/Reshape_4_output_0: 3d28358f
/control_model/diffusion_model/input_blocks.8/input_blocks.8.1/transformer_blocks.0/attn2/Reshape_2_output_0: 3db07075
/control_model/diffusion_model/input_blocks.8/input_blocks.8.1/transformer_blocks.0/attn2/Reshape_4_output_0: 3d265949
/control_model/diffusion_model/middle_block.1/transformer_blocks.0/attn2/Reshape_2_output_0: 3d9c278b
/control_model/diffusion_model/middle_block.1/transformer_blocks.0/attn2/Reshape_4_output_0: 3d259980
/control_model/diffusion_model/output_blocks.3/output_blocks.3.1/transformer_blocks.0/attn2/Reshape_2_output_0: 3da26a0e
/control_model/diffusion_model/output_blocks.3/output_blocks.3.1/transformer_blocks.0/attn2/Reshape_4_output_0: 3d194bb1
/control_model/diffusion_model/output_blocks.4/output_blocks.4.1/transformer_blocks.0/attn2/Reshape_2_output_0: 3db2a9ab
/control_model/diffusion_model/output_blocks.4/output_blocks.4.1/transformer_blocks.0/attn2/Reshape_4_output_0: 3d2fb524
/control_model/diffusion_model/output_blocks.5/output_blocks.5.1/transformer_blocks.0/attn2/Reshape_2_output_0: 3da4628b
/control_model/diffusion_model/output_blocks.5/output_blocks.5.1/transformer_blocks.0/attn2/Reshape_4_output_0: 3d3fc4ab
/control_model/diffusion_model/output_blocks.6/output_blocks.6.1/transformer_blocks.0/attn2/Reshape_2_output_0: 3dac7fc1
/control_model/diffusion_model/output_blocks.6/output_blocks.6.1/transformer_blocks.0/attn2/Reshape_4_output_0: 3d88b395
/control_model/diffusion_model/output_blocks.7/output_blocks.7.1/transformer_blocks.0/attn2/Reshape_2_output_0: 3d9ceabf
/control_model/diffusion_model/output_blocks.7/output_blocks.7.1/transformer_blocks.0/attn2/Reshape_4_output_0: 3d79d293
/control_model/diffusion_model/output_blocks.8/output_blocks.8.1/transformer_blocks.0/attn2/Reshape_2_output_0: 3d8ce91e
/control_model/diffusion_model/output_blocks.8/output_blocks.8.1/transformer_blocks.0/attn2/Reshape_4_output_0: 3d5c1b1f
/control_model/diffusion_model/output_blocks.9/output_blocks.9.1/transformer_blocks.0/attn2/Reshape_2_output_0: 3dbb3383
/control_model/diffusion_model/output_blocks.9/output_blocks.9.1/transformer_blocks.0/attn2/Reshape_4_output_0: 3d199235
/control_model/diffusion_model/output_blocks.10/output_blocks.10.1/transformer_blocks.0/attn2/Reshape_2_output_0: 3dc1f989
/control_model/diffusion_model/output_blocks.10/output_blocks.10.1/transformer_blocks.0/attn2/Reshape_4_output_0: 3d4d1956
/control_model/diffusion_model/output_blocks.11/output_blocks.11.1/transformer_blocks.0/attn2/Reshape_2_output_0: 3dd0e4af
/control_model/diffusion_model/output_blocks.11/output_blocks.11.1/transformer_blocks.0/attn2/Reshape_4_output_0: 3d4c3680
/control_model/control_model/input_blocks.1/input_blocks.1.1/transformer_blocks.0/attn2_1/Reshape_1_output_0: 3db2d7dd
/control_model/control_model/input_blocks.1/input_blocks.1.1/transformer_blocks.0/attn2_1/Reshape_3_output_0: 3ce6fac1
/control_model/control_model/input_blocks.2/input_blocks.2.1/transformer_blocks.0/attn2_1/Reshape_2_output_0: 3d8c426b
/control_model/control_model/input_blocks.2/input_blocks.2.1/transformer_blocks.0/attn2_1/Reshape_4_output_0: 3ce1f877
/control_model/control_model/input_blocks.4/input_blocks.4.1/transformer_blocks.0/attn2_1/Reshape_2_output_0: 3d8f07c5
/control_model/control_model/input_blocks.4/input_blocks.4.1/transformer_blocks.0/attn2_1/Reshape_4_output_0: 3d63c469
/control_model/control_model/input_blocks.5/input_blocks.5.1/transformer_blocks.0/attn2_1/Reshape_2_output_0: 3d86abee
/control_model/control_model/input_blocks.5/input_blocks.5.1/transformer_blocks.0/attn2_1/Reshape_4_output_0: 3d81e982
/control_model/control_model/input_blocks.7/input_blocks.7.1/transformer_blocks.0/attn2_1/Reshape_2_output_0: 3d61595c
/control_model/control_model/input_blocks.7/input_blocks.7.1/transformer_blocks.0/attn2_1/Reshape_4_output_0: 3cd8560d
/control_model/control_model/input_blocks.8/input_blocks.8.1/transformer_blocks.0/attn2_1/Reshape_2_output_0: 3d5128dd
/control_model/control_model/input_blocks.8/input_blocks.8.1/transformer_blocks.0/attn2_1/Reshape_4_output_0: 3cc32b24
/control_model/control_model/middle_block.1/transformer_blocks.0/attn2_1/Reshape_2_output_0: 3d47e3d0
/control_model/control_model/middle_block.1/transformer_blocks.0/attn2_1/Reshape_4_output_0: 3d0f6670
/control_model/diffusion_model/input_blocks.1/input_blocks.1.1/transformer_blocks.0/attn2_1/Reshape_1_output_0: 3d9fc1fe
/control_model/diffusion_model/input_blocks.1/input_blocks.1.1/transformer_blocks.0/attn2_1/Reshape_3_output_0: 3cfc563a
/control_model/diffusion_model/input_blocks.2/input_blocks.2.1/transformer_blocks.0/attn2_1/Reshape_2_output_0: 3d990bda
/control_model/diffusion_model/input_blocks.2/input_blocks.2.1/transformer_blocks.0/attn2_1/Reshape_4_output_0: 3d02c30b
/control_model/diffusion_model/input_blocks.4/input_blocks.4.1/transformer_blocks.0/attn2_1/Reshape_2_output_0: 3d93faa2
/control_model/diffusion_model/input_blocks.4/input_blocks.4.1/transformer_blocks.0/attn2_1/Reshape_4_output_0: 3d64824e
/control_model/diffusion_model/input_blocks.5/input_blocks.5.1/transformer_blocks.0/attn2_1/Reshape_2_output_0: 3da14d52
/control_model/diffusion_model/input_blocks.5/input_blocks.5.1/transformer_blocks.0/attn2_1/Reshape_4_output_0: 3d848849
/control_model/diffusion_model/input_blocks.7/input_blocks.7.1/transformer_blocks.0/attn2_1/Reshape_2_output_0: 3d77772d
/control_model/diffusion_model/input_blocks.7/input_blocks.7.1/transformer_blocks.0/attn2_1/Reshape_4_output_0: 3cea4076
/control_model/diffusion_model/input_blocks.8/input_blocks.8.1/transformer_blocks.0/attn2_1/Reshape_2_output_0: 3d6815fd
/control_model/diffusion_model/input_blocks.8/input_blocks.8.1/transformer_blocks.0/attn2_1/Reshape_4_output_0: 3cc4835a
/control_model/diffusion_model/middle_block.1/transformer_blocks.0/attn2_1/Reshape_2_output_0: 3d4d912a
/control_model/diffusion_model/middle_block.1/transformer_blocks.0/attn2_1/Reshape_4_output_0: 3d0d38bc
/control_model/diffusion_model/output_blocks.3/output_blocks.3.1/transformer_blocks.0/attn2_1/Reshape_2_output_0: 3d3cc6da
/control_model/diffusion_model/output_blocks.3/output_blocks.3.1/transformer_blocks.0/attn2_1/Reshape_4_output_0: 3d0047a9
/control_model/diffusion_model/output_blocks.4/output_blocks.4.1/transformer_blocks.0/attn2_1/Reshape_2_output_0: 3d23bf36
/control_model/diffusion_model/output_blocks.4/output_blocks.4.1/transformer_blocks.0/attn2_1/Reshape_4_output_0: 3d13dd00
/control_model/diffusion_model/output_blocks.5/output_blocks.5.1/transformer_blocks.0/attn2_1/Reshape_2_output_0: 3d38d208
/control_model/diffusion_model/output_blocks.5/output_blocks.5.1/transformer_blocks.0/attn2_1/Reshape_4_output_0: 3d1c4e3e
/control_model/diffusion_model/output_blocks.6/output_blocks.6.1/transformer_blocks.0/attn2_1/Reshape_2_output_0: 3d5b556c
/control_model/diffusion_model/output_blocks.6/output_blocks.6.1/transformer_blocks.0/attn2_1/Reshape_4_output_0: 3d332219
/control_model/diffusion_model/output_blocks.7/output_blocks.7.1/transformer_blocks.0/attn2_1/Reshape_2_output_0: 3d8806d4
/control_model/diffusion_model/output_blocks.7/output_blocks.7.1/transformer_blocks.0/attn2_1/Reshape_4_output_0: 3d32c00e
/control_model/diffusion_model/output_blocks.8/output_blocks.8.1/transformer_blocks.0/attn2_1/Reshape_2_output_0: 3d6ec564
/control_model/diffusion_model/output_blocks.8/output_blocks.8.1/transformer_blocks.0/attn2_1/Reshape_4_output_0: 3d038774
/control_model/diffusion_model/output_blocks.9/output_blocks.9.1/transformer_blocks.0/attn2_1/Reshape_2_output_0: 3d96bab1
/control_model/diffusion_model/output_blocks.9/output_blocks.9.1/transformer_blocks.0/attn2_1/Reshape_4_output_0: 3cd0f374
/control_model/diffusion_model/output_blocks.10/output_blocks.10.1/transformer_blocks.0/attn2_1/Reshape_2_output_0: 3da1faf6
/control_model/diffusion_model/output_blocks.10/output_blocks.10.1/transformer_blocks.0/attn2_1/Reshape_4_output_0: 3d172c2e
/control_model/diffusion_model/output_blocks.11/output_blocks.11.1/transformer_blocks.0/attn2_1/Reshape_2_output_0: 3da20610
/control_model/diffusion_model/output_blocks.11/output_blocks.11.1/transformer_blocks.0/attn2_1/Reshape_4_output_0: 3d1808cf
/Sqrt_output_0: 3c00f2da
/control_model/control_model/zero_convs.0/zero_convs.0.0/Conv_output_0: 3b24386e
/control_model/control_model/input_blocks.1/input_blocks.1.0/in_layers/in_layers.0/Reshape_output_0: 3cf52668
/control_model/control_model/input_blocks.1/input_blocks.1.1/transformer_blocks.0/attn2/Transpose_1_output_0: 3da3b226
/control_model/control_model/input_blocks.1/input_blocks.1.1/transformer_blocks.0/attn2/Transpose_2_output_0: 3d1e8d94
/control_model/control_model/input_blocks.2/input_blocks.2.1/transformer_blocks.0/attn2/Transpose_1_output_0: 3dbaa70f
/control_model/control_model/input_blocks.2/input_blocks.2.1/transformer_blocks.0/attn2/Transpose_2_output_0: 3d2c3187
/control_model/control_model/input_blocks.4/input_blocks.4.1/transformer_blocks.0/attn2/Transpose_1_output_0: 3dac7761
/control_model/control_model/input_blocks.4/input_blocks.4.1/transformer_blocks.0/attn2/Transpose_2_output_0: 3d9eca49
/control_model/control_model/input_blocks.5/input_blocks.5.1/transformer_blocks.0/attn2/Transpose_1_output_0: 3dbb599a
/control_model/control_model/input_blocks.5/input_blocks.5.1/transformer_blocks.0/attn2/Transpose_2_output_0: 3dadace1
/control_model/control_model/input_blocks.7/input_blocks.7.1/transformer_blocks.0/attn2/Transpose_1_output_0: 3d97a3e8
/control_model/control_model/input_blocks.7/input_blocks.7.1/transformer_blocks.0/attn2/Transpose_2_output_0: 3d3482a1
/control_model/control_model/input_blocks.8/input_blocks.8.1/transformer_blocks.0/attn2/Transpose_1_output_0: 3db47de7
/control_model/control_model/input_blocks.8/input_blocks.8.1/transformer_blocks.0/attn2/Transpose_2_output_0: 3d297716
/control_model/control_model/middle_block.1/transformer_blocks.0/attn2/Transpose_1_output_0: 3d9f8104
/control_model/control_model/middle_block.1/transformer_blocks.0/attn2/Transpose_2_output_0: 3d249e9b
(Unnamed Layer* 425) [Shuffle]_output: 3ca0510f
(Unnamed Layer* 426) [PluginV2DynamicExt]_output: 3d5538b0
/control_model/diffusion_model/input_blocks.1/input_blocks.1.0/in_layers/in_layers.0/InstanceNormalization_output_0: 3d5538b0
/control_model/diffusion_model/input_blocks.1/input_blocks.1.1/transformer_blocks.0/attn2/Transpose_1_output_0: 3d9ff99a
/control_model/diffusion_model/input_blocks.1/input_blocks.1.1/transformer_blocks.0/attn2/Transpose_2_output_0: 3d1b4d0d
/control_model/diffusion_model/input_blocks.2/input_blocks.2.1/transformer_blocks.0/attn2/Transpose_1_output_0: 3dba40c9
/control_model/diffusion_model/input_blocks.2/input_blocks.2.1/transformer_blocks.0/attn2/Transpose_2_output_0: 3d26bca4
/control_model/diffusion_model/input_blocks.4/input_blocks.4.1/transformer_blocks.0/attn2/Transpose_1_output_0: 3da4e1de
/control_model/diffusion_model/input_blocks.4/input_blocks.4.1/transformer_blocks.0/attn2/Transpose_2_output_0: 3da16ae8
/control_model/diffusion_model/input_blocks.5/input_blocks.5.1/transformer_blocks.0/attn2/Transpose_1_output_0: 3d997a14
/control_model/diffusion_model/input_blocks.5/input_blocks.5.1/transformer_blocks.0/attn2/Transpose_2_output_0: 3da25b79
/control_model/diffusion_model/input_blocks.7/input_blocks.7.1/transformer_blocks.0/attn2/Transpose_1_output_0: 3d9a5e2a
/control_model/diffusion_model/input_blocks.7/input_blocks.7.1/transformer_blocks.0/attn2/Transpose_2_output_0: 3d28358f
/control_model/diffusion_model/input_blocks.8/input_blocks.8.1/transformer_blocks.0/attn2/Transpose_1_output_0: 3db07075
/control_model/diffusion_model/input_blocks.8/input_blocks.8.1/transformer_blocks.0/attn2/Transpose_2_output_0: 3d265949
/control_model/diffusion_model/middle_block.1/transformer_blocks.0/attn2/Transpose_1_output_0: 3d9c278b
/control_model/diffusion_model/middle_block.1/transformer_blocks.0/attn2/Transpose_2_output_0: 3d259980
/control_model/diffusion_model/output_blocks.3/output_blocks.3.1/transformer_blocks.0/attn2/Transpose_1_output_0: 3da26a0e
/control_model/diffusion_model/output_blocks.3/output_blocks.3.1/transformer_blocks.0/attn2/Transpose_2_output_0: 3d194bb1
/control_model/diffusion_model/output_blocks.4/output_blocks.4.1/transformer_blocks.0/attn2/Transpose_1_output_0: 3db2a9ab
/control_model/diffusion_model/output_blocks.4/output_blocks.4.1/transformer_blocks.0/attn2/Transpose_2_output_0: 3d2fb524
/control_model/diffusion_model/output_blocks.5/output_blocks.5.1/transformer_blocks.0/attn2/Transpose_1_output_0: 3da4628b
/control_model/diffusion_model/output_blocks.5/output_blocks.5.1/transformer_blocks.0/attn2/Transpose_2_output_0: 3d3fc4ab
/control_model/diffusion_model/output_blocks.6/output_blocks.6.1/transformer_blocks.0/attn2/Transpose_1_output_0: 3dac7fc1
/control_model/diffusion_model/output_blocks.6/output_blocks.6.1/transformer_blocks.0/attn2/Transpose_2_output_0: 3d88b395
/control_model/diffusion_model/output_blocks.7/output_blocks.7.1/transformer_blocks.0/attn2/Transpose_1_output_0: 3d9ceabf
/control_model/diffusion_model/output_blocks.7/output_blocks.7.1/transformer_blocks.0/attn2/Transpose_2_output_0: 3d79d293
/control_model/diffusion_model/output_blocks.8/output_blocks.8.1/transformer_blocks.0/attn2/Transpose_1_output_0: 3d8ce91e
/control_model/diffusion_model/output_blocks.8/output_blocks.8.1/transformer_blocks.0/attn2/Transpose_2_output_0: 3d5c1b1f
/control_model/diffusion_model/output_blocks.9/output_blocks.9.1/transformer_blocks.0/attn2/Transpose_1_output_0: 3dbb3383
/control_model/diffusion_model/output_blocks.9/output_blocks.9.1/transformer_blocks.0/attn2/Transpose_2_output_0: 3d199235
/control_model/diffusion_model/output_blocks.10/output_blocks.10.1/transformer_blocks.0/attn2/Transpose_1_output_0: 3dc1f989
/control_model/diffusion_model/output_blocks.10/output_blocks.10.1/transformer_blocks.0/attn2/Transpose_2_output_0: 3d4d1956
/control_model/diffusion_model/output_blocks.11/output_blocks.11.1/transformer_blocks.0/attn2/Transpose_1_output_0: 3dd0e4af
/control_model/diffusion_model/output_blocks.11/output_blocks.11.1/transformer_blocks.0/attn2/Transpose_2_output_0: 3d4c3680
/control_model/control_model/input_blocks.1/input_blocks.1.1/transformer_blocks.0/attn2_1/Transpose_output_0: 3db2d7dd
/control_model/control_model/input_blocks.1/input_blocks.1.1/transformer_blocks.0/attn2_1/Transpose_1_output_0: 3ce6fac1
/control_model/control_model/input_blocks.2/input_blocks.2.1/transformer_blocks.0/attn2_1/Transpose_1_output_0: 3d8c426b
/control_model/control_model/input_blocks.2/input_blocks.2.1/transformer_blocks.0/attn2_1/Transpose_2_output_0: 3ce1f877
/control_model/control_model/input_blocks.4/input_blocks.4.1/transformer_blocks.0/attn2_1/Transpose_1_output_0: 3d8f07c5
/control_model/control_model/input_blocks.4/input_blocks.4.1/transformer_blocks.0/attn2_1/Transpose_2_output_0: 3d63c469
/control_model/control_model/input_blocks.5/input_blocks.5.1/transformer_blocks.0/attn2_1/Transpose_1_output_0: 3d86abee
/control_model/control_model/input_blocks.5/input_blocks.5.1/transformer_blocks.0/attn2_1/Transpose_2_output_0: 3d81e982
/control_model/control_model/input_blocks.7/input_blocks.7.1/transformer_blocks.0/attn2_1/Transpose_1_output_0: 3d61595c
/control_model/control_model/input_blocks.7/input_blocks.7.1/transformer_blocks.0/attn2_1/Transpose_2_output_0: 3cd8560d
/control_model/control_model/input_blocks.8/input_blocks.8.1/transformer_blocks.0/attn2_1/Transpose_1_output_0: 3d5128dd
/control_model/control_model/input_blocks.8/input_blocks.8.1/transformer_blocks.0/attn2_1/Transpose_2_output_0: 3cc32b24
/control_model/control_model/middle_block.1/transformer_blocks.0/attn2_1/Transpose_1_output_0: 3d47e3d0
/control_model/control_model/middle_block.1/transformer_blocks.0/attn2_1/Transpose_2_output_0: 3d0f6670
/control_model/diffusion_model/input_blocks.1/input_blocks.1.1/transformer_blocks.0/attn2_1/Transpose_output_0: 3d9fc1fe
/control_model/diffusion_model/input_blocks.1/input_blocks.1.1/transformer_blocks.0/attn2_1/Transpose_1_output_0: 3cfc563a
/control_model/diffusion_model/input_blocks.2/input_blocks.2.1/transformer_blocks.0/attn2_1/Transpose_1_output_0: 3d990bda
/control_model/diffusion_model/input_blocks.2/input_blocks.2.1/transformer_blocks.0/attn2_1/Transpose_2_output_0: 3d02c30b
/control_model/diffusion_model/input_blocks.4/input_blocks.4.1/transformer_blocks.0/attn2_1/Transpose_1_output_0: 3d93faa2
/control_model/diffusion_model/input_blocks.4/input_blocks.4.1/transformer_blocks.0/attn2_1/Transpose_2_output_0: 3d64824e
/control_model/diffusion_model/input_blocks.5/input_blocks.5.1/transformer_blocks.0/attn2_1/Transpose_1_output_0: 3da14d52
/control_model/diffusion_model/input_blocks.5/input_blocks.5.1/transformer_blocks.0/attn2_1/Transpose_2_output_0: 3d848849
/control_model/diffusion_model/input_blocks.7/input_blocks.7.1/transformer_blocks.0/attn2_1/Transpose_1_output_0: 3d77772d
/control_model/diffusion_model/input_blocks.7/input_blocks.7.1/transformer_blocks.0/attn2_1/Transpose_2_output_0: 3cea4076
/control_model/diffusion_model/input_blocks.8/input_blocks.8.1/transformer_blocks.0/attn2_1/Transpose_1_output_0: 3d6815fd
/control_model/diffusion_model/input_blocks.8/input_blocks.8.1/transformer_blocks.0/attn2_1/Transpose_2_output_0: 3cc4835a
/control_model/diffusion_model/middle_block.1/transformer_blocks.0/attn2_1/Transpose_1_output_0: 3d4d912a
/control_model/diffusion_model/middle_block.1/transformer_blocks.0/attn2_1/Transpose_2_output_0: 3d0d38bc
/control_model/diffusion_model/output_blocks.3/output_blocks.3.1/transformer_blocks.0/attn2_1/Transpose_1_output_0: 3d3cc6da
/control_model/diffusion_model/output_blocks.3/output_blocks.3.1/transformer_blocks.0/attn2_1/Transpose_2_output_0: 3d0047a9
/control_model/diffusion_model/output_blocks.4/output_blocks.4.1/transformer_blocks.0/attn2_1/Transpose_1_output_0: 3d23bf36
/control_model/diffusion_model/output_blocks.4/output_blocks.4.1/transformer_blocks.0/attn2_1/Transpose_2_output_0: 3d13dd00
/control_model/diffusion_model/output_blocks.5/output_blocks.5.1/transformer_blocks.0/attn2_1/Transpose_1_output_0: 3d38d208
/control_model/diffusion_model/output_blocks.5/output_blocks.5.1/transformer_blocks.0/attn2_1/Transpose_2_output_0: 3d1c4e3e
/control_model/diffusion_model/output_blocks.6/output_blocks.6.1/transformer_blocks.0/attn2_1/Transpose_1_output_0: 3d5b556c
/control_model/diffusion_model/output_blocks.6/output_blocks.6.1/transformer_blocks.0/attn2_1/Transpose_2_output_0: 3d332219
/control_model/diffusion_model/output_blocks.7/output_blocks.7.1/transformer_blocks.0/attn2_1/Transpose_1_output_0: 3d8806d4
/control_model/diffusion_model/output_blocks.7/output_blocks.7.1/transformer_blocks.0/attn2_1/Transpose_2_output_0: 3d32c00e
/control_model/diffusion_model/output_blocks.8/output_blocks.8.1/transformer_blocks.0/attn2_1/Transpose_1_output_0: 3d6ec564
/control_model/diffusion_model/output_blocks.8/output_blocks.8.1/transformer_blocks.0/attn2_1/Transpose_2_output_0: 3d038774
/control_model/diffusion_model/output_blocks.9/output_blocks.9.1/transformer_blocks.0/attn2_1/Transpose_1_output_0: 3d96bab1
/control_model/diffusion_model/output_blocks.9/output_blocks.9.1/transformer_blocks.0/attn2_1/Transpose_2_output_0: 3cd0f374
/control_model/diffusion_model/output_blocks.10/output_blocks.10.1/transformer_blocks.0/attn2_1/Transpose_1_output_0: 3da1faf6
/control_model/diffusion_model/output_blocks.10/output_blocks.10.1/transformer_blocks.0/attn2_1/Transpose_2_output_0: 3d172c2e
/control_model/diffusion_model/output_blocks.11/output_blocks.11.1/transformer_blocks.0/attn2_1/Transpose_1_output_0: 3da20610
/control_model/diffusion_model/output_blocks.11/output_blocks.11.1/transformer_blocks.0/attn2_1/Transpose_2_output_0: 3d1808cf
(Unnamed Layer* 506) [Shuffle]_output: 3cf52668
(Unnamed Layer* 507) [PluginV2DynamicExt]_output: 3d5b75f4
/control_model/control_model/input_blocks.1/input_blocks.1.0/in_layers/in_layers.0/InstanceNormalization_output_0: 3d5b75f4
/control_model/control_model/input_blocks.1/input_blocks.1.1/transformer_blocks.0/attn2/Reshape_3_output_0: 3da3b226
/control_model/control_model/input_blocks.1/input_blocks.1.1/transformer_blocks.0/attn2/Reshape_5_output_0: 3d1e8d94
/control_model/control_model/input_blocks.2/input_blocks.2.1/transformer_blocks.0/attn2/Reshape_3_output_0: 3dbaa70f
/control_model/control_model/input_blocks.2/input_blocks.2.1/transformer_blocks.0/attn2/Reshape_5_output_0: 3d2c3187
/control_model/control_model/input_blocks.4/input_blocks.4.1/transformer_blocks.0/attn2/Reshape_3_output_0: 3dac7761
/control_model/control_model/input_blocks.4/input_blocks.4.1/transformer_blocks.0/attn2/Reshape_5_output_0: 3d9eca49
/control_model/control_model/input_blocks.5/input_blocks.5.1/transformer_blocks.0/attn2/Reshape_3_output_0: 3dbb599a
/control_model/control_model/input_blocks.5/input_blocks.5.1/transformer_blocks.0/attn2/Reshape_5_output_0: 3dadace1
/control_model/control_model/input_blocks.7/input_blocks.7.1/transformer_blocks.0/attn2/Reshape_3_output_0: 3d97a3e8
/control_model/control_model/input_blocks.7/input_blocks.7.1/transformer_blocks.0/attn2/Reshape_5_output_0: 3d3482a1
/control_model/control_model/input_blocks.8/input_blocks.8.1/transformer_blocks.0/attn2/Reshape_3_output_0: 3db47de7
/control_model/control_model/input_blocks.8/input_blocks.8.1/transformer_blocks.0/attn2/Reshape_5_output_0: 3d297716
/control_model/control_model/middle_block.1/transformer_blocks.0/attn2/Reshape_3_output_0: 3d9f8104
/control_model/control_model/middle_block.1/transformer_blocks.0/attn2/Reshape_5_output_0: 3d249e9b
/control_model/diffusion_model/input_blocks.1/input_blocks.1.0/in_layers/in_layers.0/Reshape_1_output_0: 3d5538b0
/control_model/diffusion_model/input_blocks.1/input_blocks.1.1/transformer_blocks.0/attn2/Reshape_3_output_0: 3d9ff99a
/control_model/diffusion_model/input_blocks.1/input_blocks.1.1/transformer_blocks.0/attn2/Reshape_5_output_0: 3d1b4d0d
/control_model/diffusion_model/input_blocks.2/input_blocks.2.1/transformer_blocks.0/attn2/Reshape_3_output_0: 3dba40c9
/control_model/diffusion_model/input_blocks.2/input_blocks.2.1/transformer_blocks.0/attn2/Reshape_5_output_0: 3d26bca4
/control_model/diffusion_model/input_blocks.4/input_blocks.4.1/transformer_blocks.0/attn2/Reshape_3_output_0: 3da4e1de
/control_model/diffusion_model/input_blocks.4/input_blocks.4.1/transformer_blocks.0/attn2/Reshape_5_output_0: 3da16ae8
/control_model/diffusion_model/input_blocks.5/input_blocks.5.1/transformer_blocks.0/attn2/Reshape_3_output_0: 3d997a14
/control_model/diffusion_model/input_blocks.5/input_blocks.5.1/transformer_blocks.0/attn2/Reshape_5_output_0: 3da25b79
/control_model/diffusion_model/input_blocks.7/input_blocks.7.1/transformer_blocks.0/attn2/Reshape_3_output_0: 3d9a5e2a
/control_model/diffusion_model/input_blocks.7/input_blocks.7.1/transformer_blocks.0/attn2/Reshape_5_output_0: 3d28358f
/control_model/diffusion_model/input_blocks.8/input_blocks.8.1/transformer_blocks.0/attn2/Reshape_3_output_0: 3db07075
/control_model/diffusion_model/input_blocks.8/input_blocks.8.1/transformer_blocks.0/attn2/Reshape_5_output_0: 3d265949
/control_model/diffusion_model/middle_block.1/transformer_blocks.0/attn2/Reshape_3_output_0: 3d9c278b
/control_model/diffusion_model/middle_block.1/transformer_blocks.0/attn2/Reshape_5_output_0: 3d259980
/control_model/diffusion_model/output_blocks.3/output_blocks.3.1/transformer_blocks.0/attn2/Reshape_3_output_0: 3da26a0e
/control_model/diffusion_model/output_blocks.3/output_blocks.3.1/transformer_blocks.0/attn2/Reshape_5_output_0: 3d194bb1
/control_model/diffusion_model/output_blocks.4/output_blocks.4.1/transformer_blocks.0/attn2/Reshape_3_output_0: 3db2a9ab
/control_model/diffusion_model/output_blocks.4/output_blocks.4.1/transformer_blocks.0/attn2/Reshape_5_output_0: 3d2fb524
/control_model/diffusion_model/output_blocks.5/output_blocks.5.1/transformer_blocks.0/attn2/Reshape_3_output_0: 3da4628b
/control_model/diffusion_model/output_blocks.5/output_blocks.5.1/transformer_blocks.0/attn2/Reshape_5_output_0: 3d3fc4ab
/control_model/diffusion_model/output_blocks.6/output_blocks.6.1/transformer_blocks.0/attn2/Reshape_3_output_0: 3dac7fc1
/control_model/diffusion_model/output_blocks.6/output_blocks.6.1/transformer_blocks.0/attn2/Reshape_5_output_0: 3d88b395
/control_model/diffusion_model/output_blocks.7/output_blocks.7.1/transformer_blocks.0/attn2/Reshape_3_output_0: 3d9ceabf
/control_model/diffusion_model/output_blocks.7/output_blocks.7.1/transformer_blocks.0/attn2/Reshape_5_output_0: 3d79d293
/control_model/diffusion_model/output_blocks.8/output_blocks.8.1/transformer_blocks.0/attn2/Reshape_3_output_0: 3d8ce91e
/control_model/diffusion_model/output_blocks.8/output_blocks.8.1/transformer_blocks.0/attn2/Reshape_5_output_0: 3d5c1b1f
/control_model/diffusion_model/output_blocks.9/output_blocks.9.1/transformer_blocks.0/attn2/Reshape_3_output_0: 3dbb3383
/control_model/diffusion_model/output_blocks.9/output_blocks.9.1/transformer_blocks.0/attn2/Reshape_5_output_0: 3d199235
/control_model/diffusion_model/output_blocks.10/output_blocks.10.1/transformer_blocks.0/attn2/Reshape_3_output_0: 3dc1f989
/control_model/diffusion_model/output_blocks.10/output_blocks.10.1/transformer_blocks.0/attn2/Reshape_5_output_0: 3d4d1956
/control_model/diffusion_model/Add_12_output_0: 3ca350a8
/control_model/diffusion_model/output_blocks.11/output_blocks.11.1/transformer_blocks.0/attn2/Reshape_3_output_0: 3dd0e4af
/control_model/diffusion_model/output_blocks.11/output_blocks.11.1/transformer_blocks.0/attn2/Reshape_5_output_0: 3d4c3680
/control_model/control_model/input_blocks.1/input_blocks.1.1/transformer_blocks.0/attn2_1/Reshape_2_output_0: 3db2d7dd
/control_model/control_model/input_blocks.1/input_blocks.1.1/transformer_blocks.0/attn2_1/Reshape_4_output_0: 3ce6fac1
/control_model/control_model/input_blocks.2/input_blocks.2.1/transformer_blocks.0/attn2_1/Reshape_3_output_0: 3d8c426b
/control_model/control_model/input_blocks.2/input_blocks.2.1/transformer_blocks.0/attn2_1/Reshape_5_output_0: 3ce1f877
/control_model/control_model/input_blocks.4/input_blocks.4.1/transformer_blocks.0/attn2_1/Reshape_3_output_0: 3d8f07c5
/control_model/control_model/input_blocks.4/input_blocks.4.1/transformer_blocks.0/attn2_1/Reshape_5_output_0: 3d63c469
/control_model/control_model/input_blocks.5/input_blocks.5.1/transformer_blocks.0/attn2_1/Reshape_3_output_0: 3d86abee
/control_model/control_model/input_blocks.5/input_blocks.5.1/transformer_blocks.0/attn2_1/Reshape_5_output_0: 3d81e982
/control_model/control_model/input_blocks.7/input_blocks.7.1/transformer_blocks.0/attn2_1/Reshape_3_output_0: 3d61595c
/control_model/control_model/input_blocks.7/input_blocks.7.1/transformer_blocks.0/attn2_1/Reshape_5_output_0: 3cd8560d
/control_model/control_model/input_blocks.8/input_blocks.8.1/transformer_blocks.0/attn2_1/Reshape_3_output_0: 3d5128dd
/control_model/control_model/input_blocks.8/input_blocks.8.1/transformer_blocks.0/attn2_1/Reshape_5_output_0: 3cc32b24
/control_model/control_model/middle_block.1/transformer_blocks.0/attn2_1/Reshape_3_output_0: 3d47e3d0
/control_model/control_model/middle_block.1/transformer_blocks.0/attn2_1/Reshape_5_output_0: 3d0f6670
/control_model/diffusion_model/input_blocks.1/input_blocks.1.1/transformer_blocks.0/attn2_1/Reshape_2_output_0: 3d9fc1fe
/control_model/diffusion_model/input_blocks.1/input_blocks.1.1/transformer_blocks.0/attn2_1/Reshape_4_output_0: 3cfc563a
/control_model/diffusion_model/input_blocks.2/input_blocks.2.1/transformer_blocks.0/attn2_1/Reshape_3_output_0: 3d990bda
/control_model/diffusion_model/input_blocks.2/input_blocks.2.1/transformer_blocks.0/attn2_1/Reshape_5_output_0: 3d02c30b
/control_model/diffusion_model/input_blocks.4/input_blocks.4.1/transformer_blocks.0/attn2_1/Reshape_3_output_0: 3d93faa2
/control_model/diffusion_model/input_blocks.4/input_blocks.4.1/transformer_blocks.0/attn2_1/Reshape_5_output_0: 3d64824e
/control_model/diffusion_model/input_blocks.5/input_blocks.5.1/transformer_blocks.0/attn2_1/Reshape_3_output_0: 3da14d52
/control_model/diffusion_model/input_blocks.5/input_blocks.5.1/transformer_blocks.0/attn2_1/Reshape_5_output_0: 3d848849
/control_model/diffusion_model/input_blocks.7/input_blocks.7.1/transformer_blocks.0/attn2_1/Reshape_3_output_0: 3d77772d
/control_model/diffusion_model/input_blocks.7/input_blocks.7.1/transformer_blocks.0/attn2_1/Reshape_5_output_0: 3cea4076
/control_model/diffusion_model/input_blocks.8/input_blocks.8.1/transformer_blocks.0/attn2_1/Reshape_3_output_0: 3d6815fd
/control_model/diffusion_model/input_blocks.8/input_blocks.8.1/transformer_blocks.0/attn2_1/Reshape_5_output_0: 3cc4835a
/control_model/diffusion_model/middle_block.1/transformer_blocks.0/attn2_1/Reshape_3_output_0: 3d4d912a
/control_model/diffusion_model/middle_block.1/transformer_blocks.0/attn2_1/Reshape_5_output_0: 3d0d38bc
/control_model/diffusion_model/output_blocks.3/output_blocks.3.1/transformer_blocks.0/attn2_1/Reshape_3_output_0: 3d3cc6da
/control_model/diffusion_model/output_blocks.3/output_blocks.3.1/transformer_blocks.0/attn2_1/Reshape_5_output_0: 3d0047a9
/control_model/diffusion_model/output_blocks.4/output_blocks.4.1/transformer_blocks.0/attn2_1/Reshape_3_output_0: 3d23bf36
/control_model/diffusion_model/output_blocks.4/output_blocks.4.1/transformer_blocks.0/attn2_1/Reshape_5_output_0: 3d13dd00
/control_model/diffusion_model/output_blocks.5/output_blocks.5.1/transformer_blocks.0/attn2_1/Reshape_3_output_0: 3d38d208
/control_model/diffusion_model/output_blocks.5/output_blocks.5.1/transformer_blocks.0/attn2_1/Reshape_5_output_0: 3d1c4e3e
/control_model/diffusion_model/output_blocks.6/output_blocks.6.1/transformer_blocks.0/attn2_1/Reshape_3_output_0: 3d5b556c
/control_model/diffusion_model/output_blocks.6/output_blocks.6.1/transformer_blocks.0/attn2_1/Reshape_5_output_0: 3d332219
/control_model/diffusion_model/output_blocks.7/output_blocks.7.1/transformer_blocks.0/attn2_1/Reshape_3_output_0: 3d8806d4
/control_model/diffusion_model/output_blocks.7/output_blocks.7.1/transformer_blocks.0/attn2_1/Reshape_5_output_0: 3d32c00e
/control_model/diffusion_model/output_blocks.8/output_blocks.8.1/transformer_blocks.0/attn2_1/Reshape_3_output_0: 3d6ec564
/control_model/diffusion_model/output_blocks.8/output_blocks.8.1/transformer_blocks.0/attn2_1/Reshape_5_output_0: 3d038774
/control_model/diffusion_model/output_blocks.9/output_blocks.9.1/transformer_blocks.0/attn2_1/Reshape_3_output_0: 3d96bab1
/control_model/diffusion_model/output_blocks.9/output_blocks.9.1/transformer_blocks.0/attn2_1/Reshape_5_output_0: 3cd0f374
/control_model/diffusion_model/output_blocks.10/output_blocks.10.1/transformer_blocks.0/attn2_1/Reshape_3_output_0: 3da1faf6
/control_model/diffusion_model/output_blocks.10/output_blocks.10.1/transformer_blocks.0/attn2_1/Reshape_5_output_0: 3d172c2e
/control_model/diffusion_model/output_blocks.11/output_blocks.11.1/transformer_blocks.0/attn2_1/Reshape_3_output_0: 3da20610
/control_model/diffusion_model/output_blocks.11/output_blocks.11.1/transformer_blocks.0/attn2_1/Reshape_5_output_0: 3d1808cf
/control_model/control_model/input_blocks.1/input_blocks.1.0/in_layers/in_layers.0/Reshape_1_output_0: 3d5b75f4
(Unnamed Layer* 604) [Constant]_output: 3bc660ba
(Unnamed Layer* 605) [Shuffle]_output: 3bc660ba
/control_model/diffusion_model/input_blocks.1/input_blocks.1.0/in_layers/in_layers.0/Mul_output_0: 3ce5eb60
(Unnamed Layer* 607) [Constant]_output: 3bbc6596
(Unnamed Layer* 608) [Shuffle]_output: 3bbc6596
/control_model/control_model/input_blocks.1/input_blocks.1.0/in_layers/in_layers.0/Mul_output_0: 3ce8bcde
(Unnamed Layer* 610) [Constant]_output: 3ac7c337
(Unnamed Layer* 611) [Shuffle]_output: 3ac7c337
/control_model/diffusion_model/input_blocks.1/input_blocks.1.0/in_layers/in_layers.0/Add_output_0: 3ce4e8be
(Unnamed Layer* 613) [Constant]_output: 3ac31345
(Unnamed Layer* 614) [Shuffle]_output: 3ac31345
/control_model/control_model/input_blocks.1/input_blocks.1.0/in_layers/in_layers.0/Add_output_0: 3ce6ed0b
/control_model/diffusion_model/input_blocks.1/input_blocks.1.0/in_layers/in_layers.1/Sigmoid_output_0: 3bfd2fe6
/control_model/control_model/input_blocks.1/input_blocks.1.0/in_layers/in_layers.1/Sigmoid_output_0: 3bf81b11
/control_model/diffusion_model/input_blocks.1/input_blocks.1.0/in_layers/in_layers.1/Mul_output_0: 3c7f90e1
/control_model/control_model/input_blocks.1/input_blocks.1.0/in_layers/in_layers.1/Mul_output_0: 3ca6424d
/control_model/diffusion_model/input_blocks.1/input_blocks.1.0/in_layers/in_layers.2/Conv_output_0: 3d8630f8
/control_model/control_model/input_blocks.1/input_blocks.1.0/in_layers/in_layers.2/Conv_output_0: 3d6faa28
/control_model/diffusion_model/input_blocks.1/input_blocks.1.0/Add_output_0: 3e000bea
/control_model/control_model/input_blocks.1/input_blocks.1.0/Add_output_0: 3db8be3d
/control_model/diffusion_model/input_blocks.1/input_blocks.1.0/out_layers/out_layers.0/Reshape_output_0: 3e000bea
/control_model/control_model/input_blocks.1/input_blocks.1.0/out_layers/out_layers.0/Reshape_output_0: 3db8be3d
(Unnamed Layer* 626) [Shuffle]_output: 3e000bea
(Unnamed Layer* 627) [PluginV2DynamicExt]_output: 3d77de45
/control_model/diffusion_model/input_blocks.1/input_blocks.1.0/out_layers/out_layers.0/InstanceNormalization_output_0: 3d77de45
(Unnamed Layer* 629) [Shuffle]_output: 3db8be3d
(Unnamed Layer* 630) [PluginV2DynamicExt]_output: 3d75bec9
/control_model/control_model/input_blocks.1/input_blocks.1.0/out_layers/out_layers.0/InstanceNormalization_output_0: 3d75bec9
/control_model/diffusion_model/input_blocks.1/input_blocks.1.0/out_layers/out_layers.0/Reshape_1_output_0: 3d77de45
/control_model/control_model/input_blocks.1/input_blocks.1.0/out_layers/out_layers.0/Reshape_1_output_0: 3d75bec9
(Unnamed Layer* 634) [Constant]_output: 3c419a23
(Unnamed Layer* 635) [Shuffle]_output: 3c419a23
/control_model/diffusion_model/input_blocks.1/input_blocks.1.0/out_layers/out_layers.0/Mul_output_0: 3d24749e
(Unnamed Layer* 637) [Constant]_output: 3c40abcc
(Unnamed Layer* 638) [Shuffle]_output: 3c40abcc
/control_model/control_model/input_blocks.1/input_blocks.1.0/out_layers/out_layers.0/Mul_output_0: 3d1cfe39
(Unnamed Layer* 640) [Constant]_output: 3b0ff479
(Unnamed Layer* 641) [Shuffle]_output: 3b0ff479
/control_model/diffusion_model/input_blocks.1/input_blocks.1.0/out_layers/out_layers.0/Add_output_0: 3d21fe7b
(Unnamed Layer* 643) [Constant]_output: 3af24507
(Unnamed Layer* 644) [Shuffle]_output: 3af24507
/control_model/control_model/input_blocks.1/input_blocks.1.0/out_layers/out_layers.0/Add_output_0: 3d0e866b
/control_model/diffusion_model/input_blocks.1/input_blocks.1.0/out_layers/out_layers.1/Sigmoid_output_0: 3bdd0828
/control_model/control_model/input_blocks.1/input_blocks.1.0/out_layers/out_layers.1/Sigmoid_output_0: 3bf532f4
/control_model/diffusion_model/input_blocks.1/input_blocks.1.0/out_layers/out_layers.1/Mul_output_0: 3c150a6b
/control_model/control_model/input_blocks.1/input_blocks.1.0/out_layers/out_layers.1/Mul_output_0: 3c5205ea
/control_model/diffusion_model/input_blocks.1/input_blocks.1.0/out_layers/out_layers.3/Conv_output_0: 3d280e02
/control_model/control_model/input_blocks.1/input_blocks.1.0/out_layers/out_layers.3/Conv_output_0: 3d0e0e63
/control_model/diffusion_model/input_blocks.1/input_blocks.1.0/Add_1_output_0: 3d36ccf7
/control_model/control_model/input_blocks.1/input_blocks.1.0/Add_1_output_0: 3d2fc800
/control_model/diffusion_model/input_blocks.1/input_blocks.1.1/norm/Reshape_output_0: 3d36ccf7
/control_model/control_model/input_blocks.1/input_blocks.1.1/norm/Reshape_output_0: 3d2fc800
(Unnamed Layer* 656) [Shuffle]_output: 3d36ccf7
(Unnamed Layer* 657) [PluginV2DynamicExt]_output: 3d68c836
/control_model/diffusion_model/input_blocks.1/input_blocks.1.1/norm/InstanceNormalization_output_0: 3d68c836
(Unnamed Layer* 659) [Shuffle]_output: 3d2fc800
(Unnamed Layer* 660) [PluginV2DynamicExt]_output: 3d6f320e
/control_model/control_model/input_blocks.1/input_blocks.1.1/norm/InstanceNormalization_output_0: 3d6f320e
/control_model/diffusion_model/input_blocks.1/input_blocks.1.1/norm/Reshape_1_output_0: 3d68c836
/control_model/control_model/input_blocks.1/input_blocks.1.1/norm/Reshape_1_output_0: 3d6f320e
(Unnamed Layer* 664) [Constant]_output: 3b8888e4
(Unnamed Layer* 665) [Shuffle]_output: 3b8888e4
/control_model/diffusion_model/input_blocks.1/input_blocks.1.1/norm/Mul_output_0: 3c3b4769
(Unnamed Layer* 667) [Constant]_output: 3b88cd11
(Unnamed Layer* 668) [Shuffle]_output: 3b88cd11
/control_model/control_model/input_blocks.1/input_blocks.1.1/norm/Mul_output_0: 3c47e648
(Unnamed Layer* 670) [Constant]_output: 3b19f9cc
(Unnamed Layer* 671) [Shuffle]_output: 3b19f9cc
/control_model/diffusion_model/input_blocks.1/input_blocks.1.1/norm/Add_output_0: 3c36bad3
(Unnamed Layer* 673) [Constant]_output: 3b068225
(Unnamed Layer* 674) [Shuffle]_output: 3b068225
/control_model/control_model/input_blocks.1/input_blocks.1.1/norm/Add_output_0: 3c44fea4
/control_model/diffusion_model/input_blocks.1/input_blocks.1.1/proj_in/Conv_output_0: 3c45819f
/control_model/control_model/input_blocks.1/input_blocks.1.1/proj_in/Conv_output_0: 3c68dd3c
/control_model/diffusion_model/input_blocks.1/input_blocks.1.1/Transpose_output_0: 3c45819f
/control_model/control_model/input_blocks.1/input_blocks.1.1/Transpose_output_0: 3c68dd3c
/control_model/diffusion_model/input_blocks.1/input_blocks.1.1/Reshape_1_output_0: 3c45819f
/control_model/control_model/input_blocks.1/input_blocks.1.1/Reshape_1_output_0: 3c68dd3c
/control_model/diffusion_model/input_blocks.1/input_blocks.1.1/transformer_blocks.0/norm1/LayerNormalization_output_0: 3cc7661b
/control_model/control_model/input_blocks.1/input_blocks.1.1/transformer_blocks.0/norm1/LayerNormalization_output_0: 3cb2bb6a
(Unnamed Layer* 694) [Constant]_output: 3b54c586
(Unnamed Layer* 695) [Shuffle]_output: 3b54c586
/control_model/diffusion_model/input_blocks.1/input_blocks.1.1/transformer_blocks.0/attn1/to_q/MatMul_output_0: 3d67ef93
(Unnamed Layer* 697) [Constant]_output: 3b41a296
(Unnamed Layer* 698) [Shuffle]_output: 3b41a296
/control_model/diffusion_model/input_blocks.1/input_blocks.1.1/transformer_blocks.0/attn1/to_k/MatMul_output_0: 3d4d99d2
(Unnamed Layer* 700) [Constant]_output: 3b014672
(Unnamed Layer* 701) [Shuffle]_output: 3b014672
/control_model/diffusion_model/input_blocks.1/input_blocks.1.1/transformer_blocks.0/attn1/to_v/MatMul_output_0: 3d01370b
(Unnamed Layer* 703) [Constant]_output: 3b6bd1d4
(Unnamed Layer* 704) [Shuffle]_output: 3b6bd1d4
/control_model/control_model/input_blocks.1/input_blocks.1.1/transformer_blocks.0/attn1/to_q/MatMul_output_0: 3d481ba1
(Unnamed Layer* 706) [Constant]_output: 3b41e022
(Unnamed Layer* 707) [Shuffle]_output: 3b41e022
/control_model/control_model/input_blocks.1/input_blocks.1.1/transformer_blocks.0/attn1/to_k/MatMul_output_0: 3d3ed746
(Unnamed Layer* 709) [Constant]_output: 3b000996
(Unnamed Layer* 710) [Shuffle]_output: 3b000996
/control_model/control_model/input_blocks.1/input_blocks.1.1/transformer_blocks.0/attn1/to_v/MatMul_output_0: 3cb62fcb
/control_model/diffusion_model/input_blocks.1/input_blocks.1.1/transformer_blocks.0/attn1/Reshape_output_0: 3d67ef93
/control_model/diffusion_model/input_blocks.1/input_blocks.1.1/transformer_blocks.0/attn1/Reshape_2_output_0: 3d4d99d2
/control_model/diffusion_model/input_blocks.1/input_blocks.1.1/transformer_blocks.0/attn1/Reshape_4_output_0: 3d01370b
/control_model/control_model/input_blocks.1/input_blocks.1.1/transformer_blocks.0/attn1/Reshape_output_0: 3d481ba1
/control_model/control_model/input_blocks.1/input_blocks.1.1/transformer_blocks.0/attn1/Reshape_2_output_0: 3d3ed746
/control_model/control_model/input_blocks.1/input_blocks.1.1/transformer_blocks.0/attn1/Reshape_4_output_0: 3cb62fcb
/control_model/diffusion_model/input_blocks.1/input_blocks.1.1/transformer_blocks.0/attn1/Transpose_output_0: 3d67ef93
/control_model/diffusion_model/input_blocks.1/input_blocks.1.1/transformer_blocks.0/attn1/Transpose_1_output_0: 3d4d99d2
/control_model/diffusion_model/input_blocks.1/input_blocks.1.1/transformer_blocks.0/attn1/Transpose_2_output_0: 3d01370b
/control_model/control_model/input_blocks.1/input_blocks.1.1/transformer_blocks.0/attn1/Transpose_output_0: 3d481ba1
/control_model/control_model/input_blocks.1/input_blocks.1.1/transformer_blocks.0/attn1/Transpose_1_output_0: 3d3ed746
/control_model/control_model/input_blocks.1/input_blocks.1.1/transformer_blocks.0/attn1/Transpose_2_output_0: 3cb62fcb
/control_model/diffusion_model/input_blocks.1/input_blocks.1.1/transformer_blocks.0/attn1/Reshape_1_output_0: 3d67ef93
/control_model/diffusion_model/input_blocks.1/input_blocks.1.1/transformer_blocks.0/attn1/Reshape_3_output_0: 3d4d99d2
/control_model/diffusion_model/input_blocks.1/input_blocks.1.1/transformer_blocks.0/attn1/Reshape_5_output_0: 3d01370b
/control_model/control_model/input_blocks.1/input_blocks.1.1/transformer_blocks.0/attn1/Reshape_1_output_0: 3d481ba1
/control_model/control_model/input_blocks.1/input_blocks.1.1/transformer_blocks.0/attn1/Reshape_3_output_0: 3d3ed746
/control_model/control_model/input_blocks.1/input_blocks.1.1/transformer_blocks.0/attn1/Reshape_5_output_0: 3cb62fcb
/control_model/diffusion_model/input_blocks.1/input_blocks.1.1/transformer_blocks.0/attn1/Einsum_output_0: 3f696cbc
/control_model/control_model/input_blocks.1/input_blocks.1.1/transformer_blocks.0/attn1/Einsum_output_0: 3f587086
(Unnamed Layer* 733) [Shuffle]_output: 3aa3392c
/control_model/diffusion_model/input_blocks.1/input_blocks.1.1/transformer_blocks.0/attn1/Mul_output_0: 3e13a17b
(Unnamed Layer* 736) [Shuffle]_output: 3aa3392c
/control_model/control_model/input_blocks.1/input_blocks.1.1/transformer_blocks.0/attn1/Mul_output_0: 3e08e36e
(Unnamed Layer* 738) [Softmax]_output: 3a623b5e
(Unnamed Layer* 740) [Softmax]_output: 3a0fa2a1
/control_model/diffusion_model/input_blocks.1/input_blocks.1.1/transformer_blocks.0/attn1/Einsum_1_output_0: 3c72220c
/control_model/control_model/input_blocks.1/input_blocks.1.1/transformer_blocks.0/attn1/Einsum_1_output_0: 3c45800c
/control_model/diffusion_model/input_blocks.1/input_blocks.1.1/transformer_blocks.0/attn1/Reshape_6_output_0: 3c72220c
/control_model/control_model/input_blocks.1/input_blocks.1.1/transformer_blocks.0/attn1/Reshape_6_output_0: 3c45800c
/control_model/diffusion_model/input_blocks.1/input_blocks.1.1/transformer_blocks.0/attn1/Transpose_3_output_0: 3c72220c
/control_model/control_model/input_blocks.1/input_blocks.1.1/transformer_blocks.0/attn1/Transpose_3_output_0: 3c45800c
/control_model/diffusion_model/input_blocks.1/input_blocks.1.1/transformer_blocks.0/attn1/Reshape_7_output_0: 3c72220c
/control_model/control_model/input_blocks.1/input_blocks.1.1/transformer_blocks.0/attn1/Reshape_7_output_0: 3c45800c
(Unnamed Layer* 750) [Constant]_output: 3add917d
(Unnamed Layer* 751) [Shuffle]_output: 3add917d
/control_model/diffusion_model/input_blocks.1/input_blocks.1.1/transformer_blocks.0/attn1/to_out/to_out.0/MatMul_output_0: 3c4fc02c
(Unnamed Layer* 753) [Constant]_output: 3adf14b3
(Unnamed Layer* 754) [Shuffle]_output: 3adf14b3
/control_model/control_model/input_blocks.1/input_blocks.1.1/transformer_blocks.0/attn1/to_out/to_out.0/MatMul_output_0: 3c0e0998
(Unnamed Layer* 756) [Constant]_output: 3aaabd62
(Unnamed Layer* 757) [Shuffle]_output: 3aaabd62
/control_model/diffusion_model/input_blocks.1/input_blocks.1.1/transformer_blocks.0/attn1/to_out/to_out.0/Add_output_0: 3c67dad5
(Unnamed Layer* 759) [Constant]_output: 3b0fdf1b
(Unnamed Layer* 760) [Shuffle]_output: 3b0fdf1b
/control_model/control_model/input_blocks.1/input_blocks.1.1/transformer_blocks.0/attn1/to_out/to_out.0/Add_output_0: 3c1952a6
/control_model/diffusion_model/input_blocks.1/input_blocks.1.1/transformer_blocks.0/Add_output_0: 3cac2920
/control_model/control_model/input_blocks.1/input_blocks.1.1/transformer_blocks.0/Add_output_0: 3c739952
/control_model/diffusion_model/input_blocks.1/input_blocks.1.1/transformer_blocks.0/norm2/LayerNormalization_output_0: 3cc9d886
/control_model/control_model/input_blocks.1/input_blocks.1.1/transformer_blocks.0/norm2/LayerNormalization_output_0: 3c878343
(Unnamed Layer* 774) [Constant]_output: 3b24d483
(Unnamed Layer* 775) [Shuffle]_output: 3b24d483
/control_model/diffusion_model/input_blocks.1/input_blocks.1.1/transformer_blocks.0/attn2/to_q/MatMul_output_0: 3caf687e
(Unnamed Layer* 777) [Constant]_output: 3b2032ba
(Unnamed Layer* 778) [Shuffle]_output: 3b2032ba
/control_model/control_model/input_blocks.1/input_blocks.1.1/transformer_blocks.0/attn2/to_q/MatMul_output_0: 3cbcee4e
/control_model/diffusion_model/input_blocks.1/input_blocks.1.1/transformer_blocks.0/attn2/Reshape_output_0: 3caf687e
/control_model/control_model/input_blocks.1/input_blocks.1.1/transformer_blocks.0/attn2/Reshape_output_0: 3cbcee4e
/control_model/diffusion_model/input_blocks.1/input_blocks.1.1/transformer_blocks.0/attn2/Transpose_output_0: 3caf687e
/control_model/control_model/input_blocks.1/input_blocks.1.1/transformer_blocks.0/attn2/Transpose_output_0: 3cbcee4e
/control_model/diffusion_model/input_blocks.1/input_blocks.1.1/transformer_blocks.0/attn2/Reshape_1_output_0: 3caf687e
/control_model/diffusion_model/input_blocks.1/input_blocks.1.1/transformer_blocks.0/attn2_1/Reshape_output_0: 3caf687e
/control_model/control_model/input_blocks.1/input_blocks.1.1/transformer_blocks.0/attn2/Reshape_1_output_0: 3cbcee4e
/control_model/diffusion_model/input_blocks.1/input_blocks.1.1/transformer_blocks.0/attn2/Einsum_output_0: 3f177312
/control_model/control_model/input_blocks.1/input_blocks.1.1/transformer_blocks.0/attn2_1/Reshape_output_0: 3cbcee4e
/control_model/diffusion_model/input_blocks.1/input_blocks.1.1/transformer_blocks.0/attn2_1/Einsum_output_0: 3f116f3a
/control_model/control_model/input_blocks.1/input_blocks.1.1/transformer_blocks.0/attn2/Einsum_output_0: 3f2d5e67
(Unnamed Layer* 792) [Shuffle]_output: 3aa3392c
/control_model/diffusion_model/input_blocks.1/input_blocks.1.1/transformer_blocks.0/attn2/Mul_2_output_0: 3dbf91f5
/control_model/control_model/input_blocks.1/input_blocks.1.1/transformer_blocks.0/attn2_1/Einsum_output_0: 3f298499
(Unnamed Layer* 796) [Shuffle]_output: 3aa3392c
/control_model/diffusion_model/input_blocks.1/input_blocks.1.1/transformer_blocks.0/attn2_1/Mul_2_output_0: 3db7f631
(Unnamed Layer* 799) [Shuffle]_output: 3aa3392c
/control_model/control_model/input_blocks.1/input_blocks.1.1/transformer_blocks.0/attn2/Mul_2_output_0: 3ddb4bca
(Unnamed Layer* 801) [Softmax]_output: 3a817bf7
(Unnamed Layer* 804) [Shuffle]_output: 3aa3392c
/control_model/control_model/input_blocks.1/input_blocks.1.1/transformer_blocks.0/attn2_1/Mul_2_output_0: 3dd66cd8
(Unnamed Layer* 806) [Softmax]_output: 3a837ef0
(Unnamed Layer* 808) [Softmax]_output: 3c0110f6
/control_model/diffusion_model/input_blocks.1/input_blocks.1.1/transformer_blocks.0/attn2/Einsum_1_output_0: 3c7a746c
(Unnamed Layer* 811) [Softmax]_output: 3c01d37c
/control_model/diffusion_model/input_blocks.1/input_blocks.1.1/transformer_blocks.0/attn2_1/Einsum_1_output_0: 3c6e6bca
/control_model/control_model/input_blocks.1/input_blocks.1.1/transformer_blocks.0/attn2/Einsum_1_output_0: 3be4f9fa
/control_model/diffusion_model/input_blocks.1/input_blocks.1.1/transformer_blocks.0/attn2/Reshape_6_output_0: 3c7a746c
/control_model/control_model/input_blocks.1/input_blocks.1.1/transformer_blocks.0/attn2_1/Einsum_1_output_0: 3be52d0b
/control_model/diffusion_model/input_blocks.1/input_blocks.1.1/transformer_blocks.0/attn2_1/Reshape_5_output_0: 3c6e6bca
/control_model/control_model/input_blocks.1/input_blocks.1.1/transformer_blocks.0/attn2/Reshape_6_output_0: 3be4f9fa
/control_model/diffusion_model/input_blocks.1/input_blocks.1.1/transformer_blocks.0/attn2/Transpose_3_output_0: 3c7a746c
/control_model/control_model/input_blocks.1/input_blocks.1.1/transformer_blocks.0/attn2_1/Reshape_5_output_0: 3be52d0b
/control_model/diffusion_model/input_blocks.1/input_blocks.1.1/transformer_blocks.0/attn2_1/Transpose_2_output_0: 3c6e6bca
/control_model/control_model/input_blocks.1/input_blocks.1.1/transformer_blocks.0/attn2/Transpose_3_output_0: 3be4f9fa
/control_model/diffusion_model/input_blocks.1/input_blocks.1.1/transformer_blocks.0/attn2/Reshape_7_output_0: 3c7a746c
/control_model/control_model/input_blocks.1/input_blocks.1.1/transformer_blocks.0/attn2_1/Transpose_2_output_0: 3be52d0b
/control_model/diffusion_model/input_blocks.1/input_blocks.1.1/transformer_blocks.0/attn2_1/Reshape_6_output_0: 3c6e6bca
/control_model/control_model/input_blocks.1/input_blocks.1.1/transformer_blocks.0/attn2/Reshape_7_output_0: 3be4f9fa
(Unnamed Layer* 827) [Constant]_output: 3a2c48f2
(Unnamed Layer* 828) [Shuffle]_output: 3a2c48f2
/control_model/diffusion_model/input_blocks.1/input_blocks.1.1/transformer_blocks.0/attn2/to_out/to_out.0/MatMul_output_0: 3b5ef867
/control_model/control_model/input_blocks.1/input_blocks.1.1/transformer_blocks.0/attn2_1/Reshape_6_output_0: 3be52d0b
(Unnamed Layer* 831) [Constant]_output: 3a2c48f2
(Unnamed Layer* 832) [Shuffle]_output: 3a2c48f2
/control_model/diffusion_model/input_blocks.1/input_blocks.1.1/transformer_blocks.0/attn2/to_out/to_out.0_1/MatMul_output_0: 3b25c032
(Unnamed Layer* 834) [Constant]_output: 3a25c205
(Unnamed Layer* 835) [Shuffle]_output: 3a25c205
/control_model/control_model/input_blocks.1/input_blocks.1.1/transformer_blocks.0/attn2/to_out/to_out.0/MatMul_output_0: 3c1ae34e
(Unnamed Layer* 837) [Constant]_output: 3a7303ea
(Unnamed Layer* 838) [Shuffle]_output: 3a7303ea
/control_model/diffusion_model/input_blocks.1/input_blocks.1.1/transformer_blocks.0/attn2/to_out/to_out.0/Add_output_0: 3bbc5891
(Unnamed Layer* 840) [Constant]_output: 3a25c205
(Unnamed Layer* 841) [Shuffle]_output: 3a25c205
/control_model/control_model/input_blocks.1/input_blocks.1.1/transformer_blocks.0/attn2/to_out/to_out.0_1/MatMul_output_0: 3c12dc95
(Unnamed Layer* 843) [Shuffle]_output: 3a7303ea
/control_model/diffusion_model/input_blocks.1/input_blocks.1.1/transformer_blocks.0/attn2/to_out/to_out.0_1/Add_output_0: 3b8c6386
(Unnamed Layer* 845) [Constant]_output: 3a77cf57
(Unnamed Layer* 846) [Shuffle]_output: 3a77cf57
/control_model/control_model/input_blocks.1/input_blocks.1.1/transformer_blocks.0/attn2/to_out/to_out.0/Add_output_0: 3befacd0
/control_model/diffusion_model/input_blocks.1/input_blocks.1.1/transformer_blocks.0/Add_1_output_0: 3cb806dc
(Unnamed Layer* 849) [Shuffle]_output: 3a77cf57
/control_model/control_model/input_blocks.1/input_blocks.1.1/transformer_blocks.0/attn2/to_out/to_out.0_1/Add_output_0: 3bdd2cbb
/control_model/diffusion_model/input_blocks.1/input_blocks.1.1/transformer_blocks.0_1/Add_output_0: 3cbd9404
/control_model/control_model/input_blocks.1/input_blocks.1.1/transformer_blocks.0/Add_1_output_0: 3c462a56
/control_model/diffusion_model/input_blocks.1/input_blocks.1.1/transformer_blocks.0/norm3/LayerNormalization_output_0: 3cc814ea
/control_model/control_model/input_blocks.1/input_blocks.1.1/transformer_blocks.0_1/Add_output_0: 3c436d72
/control_model/diffusion_model/input_blocks.1/input_blocks.1.1/transformer_blocks.0/norm3_1/LayerNormalization_output_0: 3cc8dd20
/control_model/control_model/input_blocks.1/input_blocks.1.1/transformer_blocks.0/norm3/LayerNormalization_output_0: 3c8b28e7
(Unnamed Layer* 867) [Constant]_output: 3b65cbb2
(Unnamed Layer* 868) [Shuffle]_output: 3b65cbb2
/control_model/diffusion_model/input_blocks.1/input_blocks.1.1/transformer_blocks.0/ff/net/net.0/proj/MatMul_output_0: 3d198c7e
/control_model/control_model/input_blocks.1/input_blocks.1.1/transformer_blocks.0/norm3_1/LayerNormalization_output_0: 3c8b718f
(Unnamed Layer* 873) [Constant]_output: 3b65cbb2
(Unnamed Layer* 874) [Shuffle]_output: 3b65cbb2
/control_model/diffusion_model/input_blocks.1/input_blocks.1.1/transformer_blocks.0/ff/net/net.0/proj_1/MatMul_output_0: 3d199c51
(Unnamed Layer* 876) [Constant]_output: 3b6e62a0
(Unnamed Layer* 877) [Shuffle]_output: 3b6e62a0
/control_model/control_model/input_blocks.1/input_blocks.1.1/transformer_blocks.0/ff/net/net.0/proj/MatMul_output_0: 3d0e6547
(Unnamed Layer* 879) [Constant]_output: 3b218c5b
(Unnamed Layer* 880) [Shuffle]_output: 3b218c5b
/control_model/diffusion_model/input_blocks.1/input_blocks.1.1/transformer_blocks.0/ff/net/net.0/proj/Add_output_0: 3d25191d
(Unnamed Layer* 882) [Constant]_output: 3b6e62a0
(Unnamed Layer* 883) [Shuffle]_output: 3b6e62a0
/control_model/control_model/input_blocks.1/input_blocks.1.1/transformer_blocks.0/ff/net/net.0/proj_1/MatMul_output_0: 3d0e2313
(Unnamed Layer* 885) [Shuffle]_output: 3b218c5b
/control_model/diffusion_model/input_blocks.1/input_blocks.1.1/transformer_blocks.0/ff/net/net.0/proj_1/Add_output_0: 3d20ac9a
(Unnamed Layer* 887) [Constant]_output: 3b161cfd
(Unnamed Layer* 888) [Shuffle]_output: 3b161cfd
/control_model/control_model/input_blocks.1/input_blocks.1.1/transformer_blocks.0/ff/net/net.0/proj/Add_output_0: 3d1547d3
/control_model/diffusion_model/input_blocks.1/input_blocks.1.1/transformer_blocks.0/ff/net/net.0/Split_output_0: 3ce25b6d
/control_model/diffusion_model/input_blocks.1/input_blocks.1.1/transformer_blocks.0/ff/net/net.0/Split_output_1: 3d4082b7
(Unnamed Layer* 892) [Shuffle]_output: 3b161cfd
/control_model/control_model/input_blocks.1/input_blocks.1.1/transformer_blocks.0/ff/net/net.0/proj_1/Add_output_0: 3d14a005
/control_model/diffusion_model/input_blocks.1/input_blocks.1.1/transformer_blocks.0/ff/net/net.0_1/Split_output_0: 3ce6d12a
/control_model/diffusion_model/input_blocks.1/input_blocks.1.1/transformer_blocks.0/ff/net/net.0_1/Split_output_1: 3d4095af
/control_model/control_model/input_blocks.1/input_blocks.1.1/transformer_blocks.0/ff/net/net.0/Split_output_0: 3cb7edd1
/control_model/control_model/input_blocks.1/input_blocks.1.1/transformer_blocks.0/ff/net/net.0/Split_output_1: 3d1a856c
(Unnamed Layer* 899) [Shuffle]_output: 3c367d3d
/control_model/diffusion_model/input_blocks.1/input_blocks.1.1/transformer_blocks.0/ff/net/net.0/Div_output_0: 3d082025
/control_model/control_model/input_blocks.1/input_blocks.1.1/transformer_blocks.0/ff/net/net.0_1/Split_output_0: 3cb70d0c
/control_model/control_model/input_blocks.1/input_blocks.1.1/transformer_blocks.0/ff/net/net.0_1/Split_output_1: 3d19d23b
(Unnamed Layer* 904) [Shuffle]_output: 3c367d3d
/control_model/diffusion_model/input_blocks.1/input_blocks.1.1/transformer_blocks.0/ff/net/net.0_1/Div_output_0: 3d082d8f
(Unnamed Layer* 907) [Shuffle]_output: 3c367d3d
/control_model/control_model/input_blocks.1/input_blocks.1.1/transformer_blocks.0/ff/net/net.0/Div_output_0: 3cda86a4
/control_model/diffusion_model/input_blocks.1/input_blocks.1.1/transformer_blocks.0/ff/net/net.0/Erf_output_0: 3c010a14
(Unnamed Layer* 911) [Shuffle]_output: 3c367d3d
/control_model/control_model/input_blocks.1/input_blocks.1.1/transformer_blocks.0/ff/net/net.0_1/Div_output_0: 3cd9893b
/control_model/diffusion_model/input_blocks.1/input_blocks.1.1/transformer_blocks.0/ff/net/net.0_1/Erf_output_0: 3c010a14
/control_model/control_model/input_blocks.1/input_blocks.1.1/transformer_blocks.0/ff/net/net.0/Erf_output_0: 3c02141f
(Unnamed Layer* 916) [Shuffle]_output: 3c010a14
/control_model/diffusion_model/input_blocks.1/input_blocks.1.1/transformer_blocks.0/ff/net/net.0/Add_output_0: 3c810cc9
/control_model/control_model/input_blocks.1/input_blocks.1.1/transformer_blocks.0/ff/net/net.0_1/Erf_output_0: 3c02141e
(Unnamed Layer* 920) [Shuffle]_output: 3c010a14
/control_model/diffusion_model/input_blocks.1/input_blocks.1.1/transformer_blocks.0/ff/net/net.0_1/Add_output_0: 3c810d66
(Unnamed Layer* 923) [Shuffle]_output: 3c010a14
/control_model/control_model/input_blocks.1/input_blocks.1.1/transformer_blocks.0/ff/net/net.0/Add_output_0: 3c80ee7a
/control_model/diffusion_model/input_blocks.1/input_blocks.1.1/transformer_blocks.0/ff/net/net.0/Mul_output_0: 3d20fe0b
(Unnamed Layer* 927) [Shuffle]_output: 3c010a14
/control_model/control_model/input_blocks.1/input_blocks.1.1/transformer_blocks.0/ff/net/net.0_1/Add_output_0: 3c80ee26
/control_model/diffusion_model/input_blocks.1/input_blocks.1.1/transformer_blocks.0/ff/net/net.0_1/Mul_output_0: 3cd81432
/control_model/control_model/input_blocks.1/input_blocks.1.1/transformer_blocks.0/ff/net/net.0/Mul_output_0: 3d4cfa05
(Unnamed Layer* 932) [Shuffle]_output: 3b810a14
/control_model/diffusion_model/input_blocks.1/input_blocks.1.1/transformer_blocks.0/ff/net/net.0/Mul_1_output_0: 3ca0fe0b
/control_model/control_model/input_blocks.1/input_blocks.1.1/transformer_blocks.0/ff/net/net.0_1/Mul_output_0: 3d4bab0b
(Unnamed Layer* 936) [Shuffle]_output: 3b810a14
/control_model/diffusion_model/input_blocks.1/input_blocks.1.1/transformer_blocks.0/ff/net/net.0_1/Mul_1_output_0: 3c581432
(Unnamed Layer* 939) [Shuffle]_output: 3b810a14
/control_model/control_model/input_blocks.1/input_blocks.1.1/transformer_blocks.0/ff/net/net.0/Mul_1_output_0: 3cccfa05
/control_model/diffusion_model/input_blocks.1/input_blocks.1.1/transformer_blocks.0/ff/net/net.0/Mul_2_output_0: 3c3f328b
(Unnamed Layer* 943) [Shuffle]_output: 3b810a14
/control_model/control_model/input_blocks.1/input_blocks.1.1/transformer_blocks.0/ff/net/net.0_1/Mul_1_output_0: 3ccbab0b
/control_model/diffusion_model/input_blocks.1/input_blocks.1.1/transformer_blocks.0/ff/net/net.0_1/Mul_2_output_0: 3c40f6eb
/control_model/control_model/input_blocks.1/input_blocks.1.1/transformer_blocks.0/ff/net/net.0/Mul_2_output_0: 3cb750a0
(Unnamed Layer* 947) [Constant]_output: 3b063f02
(Unnamed Layer* 948) [Shuffle]_output: 3b063f02
/control_model/diffusion_model/input_blocks.1/input_blocks.1.1/transformer_blocks.0/ff/net/net.2/MatMul_output_0: 3c947a5c
/control_model/control_model/input_blocks.1/input_blocks.1.1/transformer_blocks.0/ff/net/net.0_1/Mul_2_output_0: 3cb49d67
(Unnamed Layer* 951) [Constant]_output: 3b063f02
(Unnamed Layer* 952) [Shuffle]_output: 3b063f02
/control_model/diffusion_model/input_blocks.1/input_blocks.1.1/transformer_blocks.0/ff/net/net.2_1/MatMul_output_0: 3c8d0ea9
(Unnamed Layer* 954) [Constant]_output: 3b06ab28
(Unnamed Layer* 955) [Shuffle]_output: 3b06ab28
/control_model/control_model/input_blocks.1/input_blocks.1.1/transformer_blocks.0/ff/net/net.2/MatMul_output_0: 3cf07e64
(Unnamed Layer* 957) [Constant]_output: 3a5e1f23
(Unnamed Layer* 958) [Shuffle]_output: 3a5e1f23
/control_model/diffusion_model/input_blocks.1/input_blocks.1.1/transformer_blocks.0/ff/net/net.2/Add_output_0: 3ca491a9
(Unnamed Layer* 960) [Constant]_output: 3b06ab28
(Unnamed Layer* 961) [Shuffle]_output: 3b06ab28
/control_model/control_model/input_blocks.1/input_blocks.1.1/transformer_blocks.0/ff/net/net.2_1/MatMul_output_0: 3cef242c
(Unnamed Layer* 963) [Shuffle]_output: 3a5e1f23
/control_model/diffusion_model/input_blocks.1/input_blocks.1.1/transformer_blocks.0/ff/net/net.2_1/Add_output_0: 3c9f4a9b
(Unnamed Layer* 965) [Constant]_output: 3a53fb1d
(Unnamed Layer* 966) [Shuffle]_output: 3a53fb1d
/control_model/control_model/input_blocks.1/input_blocks.1.1/transformer_blocks.0/ff/net/net.2/Add_output_0: 3cede2bc
/control_model/diffusion_model/input_blocks.1/input_blocks.1.1/transformer_blocks.0/Add_2_output_0: 3c711a11
(Unnamed Layer* 969) [Shuffle]_output: 3a53fb1d
/control_model/control_model/input_blocks.1/input_blocks.1.1/transformer_blocks.0/ff/net/net.2_1/Add_output_0: 3ceccc60
/control_model/diffusion_model/input_blocks.1/input_blocks.1.1/transformer_blocks.0_1/Add_1_output_0: 3c792de8
/control_model/control_model/input_blocks.1/input_blocks.1.1/transformer_blocks.0/Add_2_output_0: 3d0329e3
/control_model/diffusion_model/input_blocks.1/input_blocks.1.1/Reshape_2_output_0: 3c711a11
/control_model/control_model/input_blocks.1/input_blocks.1.1/transformer_blocks.0_1/Add_1_output_0: 3d022f92
/control_model/diffusion_model/input_blocks.1/input_blocks.1.1_1/Reshape_output_0: 3c792de8
/control_model/control_model/input_blocks.1/input_blocks.1.1/Reshape_2_output_0: 3d0329e3
/control_model/diffusion_model/input_blocks.1/input_blocks.1.1/Transpose_1_output_0: 3c711a11
/control_model/control_model/input_blocks.1/input_blocks.1.1_1/Reshape_output_0: 3d022f92
/control_model/diffusion_model/input_blocks.1/input_blocks.1.1_1/Transpose_output_0: 3c792de8
/control_model/control_model/input_blocks.1/input_blocks.1.1/Transpose_1_output_0: 3d0329e3
/control_model/control_model/input_blocks.1/input_blocks.1.1_1/Transpose_output_0: 3d022f92
/control_model/diffusion_model/input_blocks.1/input_blocks.1.1/proj_out/Conv_output_0: 3c5a5f60
/control_model/diffusion_model/input_blocks.1/input_blocks.1.1/proj_out_1/Conv_output_0: 3c627470
/control_model/control_model/input_blocks.1/input_blocks.1.1/proj_out/Conv_output_0: 3cfec6c1
/control_model/diffusion_model/input_blocks.1/input_blocks.1.1/Add_output_0: 3d408874
/control_model/control_model/input_blocks.1/input_blocks.1.1/proj_out_1/Conv_output_0: 3d00191e
/control_model/diffusion_model/input_blocks.1/input_blocks.1.1_1/Add_output_0: 3d3fba9c
/control_model/control_model/input_blocks.1/input_blocks.1.1/Add_output_0: 3d839b07
/control_model/diffusion_model/input_blocks.2/input_blocks.2.0/in_layers/in_layers.0/Reshape_output_0: 3d408874
/control_model/control_model/input_blocks.1/input_blocks.1.1_1/Add_output_0: 3d848b6c
/control_model/diffusion_model/input_blocks.2/input_blocks.2.0/in_layers/in_layers.0_1/Reshape_output_0: 3d3fba9c
/control_model/control_model/zero_convs.1/zero_convs.1.0/Conv_output_0: 3c2e58f0
/control_model/control_model/input_blocks.2/input_blocks.2.0/in_layers/in_layers.0/Reshape_output_0: 3d839b07
(Unnamed Layer* 998) [Shuffle]_output: 3d408874
(Unnamed Layer* 999) [PluginV2DynamicExt]_output: 3d624492
/control_model/diffusion_model/input_blocks.2/input_blocks.2.0/in_layers/in_layers.0/InstanceNormalization_output_0: 3d624492
/control_model/control_model/zero_convs.1/zero_convs.1.0_1/Conv_output_0: 3c2fb1df
/control_model/control_model/input_blocks.2/input_blocks.2.0/in_layers/in_layers.0_1/Reshape_output_0: 3d848b6c
(Unnamed Layer* 1003) [Shuffle]_output: 3d3fba9c
(Unnamed Layer* 1004) [PluginV2DynamicExt]_output: 3d72073b
/control_model/diffusion_model/input_blocks.2/input_blocks.2.0/in_layers/in_layers.0_1/InstanceNormalization_output_0: 3d72073b
(Unnamed Layer* 1006) [Shuffle]_output: 3d839b07
(Unnamed Layer* 1007) [PluginV2DynamicExt]_output: 3d36798b
/control_model/control_model/input_blocks.2/input_blocks.2.0/in_layers/in_layers.0/InstanceNormalization_output_0: 3d36798b
/control_model/diffusion_model/input_blocks.2/input_blocks.2.0/in_layers/in_layers.0/Reshape_1_output_0: 3d624492
/control_model/diffusion_model/Add_11_output_0: 3d53a70f
(Unnamed Layer* 1011) [Shuffle]_output: 3d848b6c
(Unnamed Layer* 1012) [PluginV2DynamicExt]_output: 3d35f750
/control_model/control_model/input_blocks.2/input_blocks.2.0/in_layers/in_layers.0_1/InstanceNormalization_output_0: 3d35f750
/control_model/diffusion_model/input_blocks.2/input_blocks.2.0/in_layers/in_layers.0_1/Reshape_1_output_0: 3d72073b
/control_model/diffusion_model_1/Add_11_output_0: 3d5359c9
/control_model/control_model/input_blocks.2/input_blocks.2.0/in_layers/in_layers.0/Reshape_1_output_0: 3d36798b
(Unnamed Layer* 1017) [Constant]_output: 3bced070
(Unnamed Layer* 1018) [Shuffle]_output: 3bced070
/control_model/diffusion_model/input_blocks.2/input_blocks.2.0/in_layers/in_layers.0/Mul_output_0: 3cc4cbbd
/control_model/control_model/input_blocks.2/input_blocks.2.0/in_layers/in_layers.0_1/Reshape_1_output_0: 3d35f750
(Unnamed Layer* 1021) [Constant]_output: 3bced070
(Unnamed Layer* 1022) [Shuffle]_output: 3bced070
/control_model/diffusion_model/input_blocks.2/input_blocks.2.0/in_layers/in_layers.0_1/Mul_output_0: 3cc44d8c
(Unnamed Layer* 1024) [Constant]_output: 3bca50ad
(Unnamed Layer* 1025) [Shuffle]_output: 3bca50ad
/control_model/control_model/input_blocks.2/input_blocks.2.0/in_layers/in_layers.0/Mul_output_0: 3cb861d5
(Unnamed Layer* 1027) [Constant]_output: 3af89105
(Unnamed Layer* 1028) [Shuffle]_output: 3af89105
/control_model/diffusion_model/input_blocks.2/input_blocks.2.0/in_layers/in_layers.0/Add_output_0: 3cc12484
(Unnamed Layer* 1030) [Constant]_output: 3bca50ad
(Unnamed Layer* 1031) [Shuffle]_output: 3bca50ad
/control_model/control_model/input_blocks.2/input_blocks.2.0/in_layers/in_layers.0_1/Mul_output_0: 3cb61a9c
(Unnamed Layer* 1033) [Constant]_output: 3af89105
(Unnamed Layer* 1034) [Shuffle]_output: 3af89105
/control_model/diffusion_model/input_blocks.2/input_blocks.2.0/in_layers/in_layers.0_1/Add_output_0: 3cc0a654
(Unnamed Layer* 1036) [Constant]_output: 3af88499
(Unnamed Layer* 1037) [Shuffle]_output: 3af88499
/control_model/control_model/input_blocks.2/input_blocks.2.0/in_layers/in_layers.0/Add_output_0: 3cb10fbf
/control_model/diffusion_model/input_blocks.2/input_blocks.2.0/in_layers/in_layers.1/Sigmoid_output_0: 3be82627
(Unnamed Layer* 1040) [Constant]_output: 3af88499
(Unnamed Layer* 1041) [Shuffle]_output: 3af88499
/control_model/control_model/input_blocks.2/input_blocks.2.0/in_layers/in_layers.0_1/Add_output_0: 3cb1fdee
/control_model/diffusion_model/input_blocks.2/input_blocks.2.0/in_layers/in_layers.1_1/Sigmoid_output_0: 3be7f6bb
/control_model/control_model/input_blocks.2/input_blocks.2.0/in_layers/in_layers.1/Sigmoid_output_0: 3bddaf96
/control_model/diffusion_model/input_blocks.2/input_blocks.2.0/in_layers/in_layers.1/Mul_output_0: 3c2510b0
/control_model/control_model/input_blocks.2/input_blocks.2.0/in_layers/in_layers.1_1/Sigmoid_output_0: 3bdf1705
/control_model/diffusion_model/input_blocks.2/input_blocks.2.0/in_layers/in_layers.1_1/Mul_output_0: 3c2c17ae
/control_model/control_model/input_blocks.2/input_blocks.2.0/in_layers/in_layers.1/Mul_output_0: 3c24fc78
/control_model/diffusion_model/input_blocks.2/input_blocks.2.0/in_layers/in_layers.2/Conv_output_0: 3cd32a2b
/control_model/control_model/input_blocks.2/input_blocks.2.0/in_layers/in_layers.1_1/Mul_output_0: 3c2b2329
/control_model/diffusion_model/input_blocks.2/input_blocks.2.0/in_layers/in_layers.2_1/Conv_output_0: 3cd3fb9e
/control_model/control_model/input_blocks.2/input_blocks.2.0/in_layers/in_layers.2/Conv_output_0: 3c8ebe12
/control_model/diffusion_model/input_blocks.2/input_blocks.2.0/Add_output_0: 3d1925a1
/control_model/control_model/input_blocks.2/input_blocks.2.0/in_layers/in_layers.2_1/Conv_output_0: 3c8da1a4
/control_model/diffusion_model/input_blocks.2/input_blocks.2.0_1/Add_output_0: 3d18395e
/control_model/control_model/input_blocks.2/input_blocks.2.0/Add_output_0: 3ca950a2
/control_model/diffusion_model/input_blocks.2/input_blocks.2.0/out_layers/out_layers.0/Reshape_output_0: 3d1925a1
/control_model/control_model/input_blocks.2/input_blocks.2.0_1/Add_output_0: 3caa4986
/control_model/diffusion_model/input_blocks.2/input_blocks.2.0/out_layers/out_layers.0_1/Reshape_output_0: 3d18395e
/control_model/control_model/input_blocks.2/input_blocks.2.0/out_layers/out_layers.0/Reshape_output_0: 3ca950a2
(Unnamed Layer* 1061) [Shuffle]_output: 3d1925a1
(Unnamed Layer* 1062) [PluginV2DynamicExt]_output: 3d50ab87
/control_model/diffusion_model/input_blocks.2/input_blocks.2.0/out_layers/out_layers.0/InstanceNormalization_output_0: 3d50ab87
/control_model/control_model/input_blocks.2/input_blocks.2.0/out_layers/out_layers.0_1/Reshape_output_0: 3caa4986
(Unnamed Layer* 1065) [Shuffle]_output: 3d18395e
(Unnamed Layer* 1066) [PluginV2DynamicExt]_output: 3d51b136
/control_model/diffusion_model/input_blocks.2/input_blocks.2.0/out_layers/out_layers.0_1/InstanceNormalization_output_0: 3d51b136
(Unnamed Layer* 1068) [Shuffle]_output: 3ca950a2
(Unnamed Layer* 1069) [PluginV2DynamicExt]_output: 3d23522b
/control_model/control_model/input_blocks.2/input_blocks.2.0/out_layers/out_layers.0/InstanceNormalization_output_0: 3d23522b
/control_model/diffusion_model/input_blocks.2/input_blocks.2.0/out_layers/out_layers.0/Reshape_1_output_0: 3d50ab87
(Unnamed Layer* 1072) [Shuffle]_output: 3caa4986
(Unnamed Layer* 1073) [PluginV2DynamicExt]_output: 3d255777
/control_model/control_model/input_blocks.2/input_blocks.2.0/out_layers/out_layers.0_1/InstanceNormalization_output_0: 3d255777
/control_model/diffusion_model/input_blocks.2/input_blocks.2.0/out_layers/out_layers.0_1/Reshape_1_output_0: 3d51b136
/control_model/control_model/input_blocks.2/input_blocks.2.0/out_layers/out_layers.0/Reshape_1_output_0: 3d23522b
(Unnamed Layer* 1077) [Constant]_output: 3c1117d3
(Unnamed Layer* 1078) [Shuffle]_output: 3c1117d3
/control_model/diffusion_model/input_blocks.2/input_blocks.2.0/out_layers/out_layers.0/Mul_output_0: 3d13ea3a
/control_model/control_model/input_blocks.2/input_blocks.2.0/out_layers/out_layers.0_1/Reshape_1_output_0: 3d255777
(Unnamed Layer* 1081) [Constant]_output: 3c1117d3
(Unnamed Layer* 1082) [Shuffle]_output: 3c1117d3
/control_model/diffusion_model/input_blocks.2/input_blocks.2.0/out_layers/out_layers.0_1/Mul_output_0: 3d124081
(Unnamed Layer* 1084) [Constant]_output: 3c0cadff
(Unnamed Layer* 1085) [Shuffle]_output: 3c0cadff
/control_model/control_model/input_blocks.2/input_blocks.2.0/out_layers/out_layers.0/Mul_output_0: 3cfb4ea3
(Unnamed Layer* 1087) [Constant]_output: 3b6bcca1
(Unnamed Layer* 1088) [Shuffle]_output: 3b6bcca1
/control_model/diffusion_model/input_blocks.2/input_blocks.2.0/out_layers/out_layers.0/Add_output_0: 3d246321
(Unnamed Layer* 1090) [Constant]_output: 3c0cadff
(Unnamed Layer* 1091) [Shuffle]_output: 3c0cadff
/control_model/control_model/input_blocks.2/input_blocks.2.0/out_layers/out_layers.0_1/Mul_output_0: 3cf7d3b7
(Unnamed Layer* 1093) [Constant]_output: 3b6bcca1
(Unnamed Layer* 1094) [Shuffle]_output: 3b6bcca1
/control_model/diffusion_model/input_blocks.2/input_blocks.2.0/out_layers/out_layers.0_1/Add_output_0: 3d2653de
(Unnamed Layer* 1096) [Constant]_output: 3b4d0e44
(Unnamed Layer* 1097) [Shuffle]_output: 3b4d0e44
/control_model/control_model/input_blocks.2/input_blocks.2.0/out_layers/out_layers.0/Add_output_0: 3d04fd7e
/control_model/diffusion_model/input_blocks.2/input_blocks.2.0/out_layers/out_layers.1/Sigmoid_output_0: 3befe3d3
(Unnamed Layer* 1100) [Constant]_output: 3b4d0e44
(Unnamed Layer* 1101) [Shuffle]_output: 3b4d0e44
/control_model/control_model/input_blocks.2/input_blocks.2.0/out_layers/out_layers.0_1/Add_output_0: 3d04692c
/control_model/diffusion_model/input_blocks.2/input_blocks.2.0/out_layers/out_layers.1_1/Sigmoid_output_0: 3bf25e2d
/control_model/control_model/input_blocks.2/input_blocks.2.0/out_layers/out_layers.1/Sigmoid_output_0: 3bf155d8
/control_model/diffusion_model/input_blocks.2/input_blocks.2.0/out_layers/out_layers.1/Mul_output_0: 3c5c755b
/control_model/control_model/input_blocks.2/input_blocks.2.0/out_layers/out_layers.1_1/Sigmoid_output_0: 3bf0c656
/control_model/diffusion_model/input_blocks.2/input_blocks.2.0/out_layers/out_layers.1_1/Mul_output_0: 3c5be20f
/control_model/control_model/input_blocks.2/input_blocks.2.0/out_layers/out_layers.1/Mul_output_0: 3c407b84
/control_model/diffusion_model/input_blocks.2/input_blocks.2.0/out_layers/out_layers.3/Conv_output_0: 3ca3a93b
/control_model/control_model/input_blocks.2/input_blocks.2.0/out_layers/out_layers.1_1/Mul_output_0: 3c3910cb
/control_model/diffusion_model/input_blocks.2/input_blocks.2.0/out_layers/out_layers.3_1/Conv_output_0: 3ca769e9
/control_model/control_model/input_blocks.2/input_blocks.2.0/out_layers/out_layers.3/Conv_output_0: 3cbc7cb4
/control_model/diffusion_model/input_blocks.2/input_blocks.2.0/Add_1_output_0: 3d593108
/control_model/control_model/input_blocks.2/input_blocks.2.0/out_layers/out_layers.3_1/Conv_output_0: 3cbf5229
/control_model/diffusion_model/input_blocks.2/input_blocks.2.0_1/Add_1_output_0: 3d549f01
/control_model/control_model/input_blocks.2/input_blocks.2.0/Add_1_output_0: 3d87495a
/control_model/diffusion_model/input_blocks.2/input_blocks.2.1/norm/Reshape_output_0: 3d593108
/control_model/control_model/input_blocks.2/input_blocks.2.0_1/Add_1_output_0: 3d889d9c
/control_model/diffusion_model/input_blocks.2/input_blocks.2.1/norm_1/Reshape_output_0: 3d549f01
/control_model/control_model/input_blocks.2/input_blocks.2.1/norm/Reshape_output_0: 3d87495a
(Unnamed Layer* 1121) [Shuffle]_output: 3d593108
(Unnamed Layer* 1122) [PluginV2DynamicExt]_output: 3d6d26a9
/control_model/diffusion_model/input_blocks.2/input_blocks.2.1/norm/InstanceNormalization_output_0: 3d6d26a9
/control_model/control_model/input_blocks.2/input_blocks.2.1/norm_1/Reshape_output_0: 3d889d9c
(Unnamed Layer* 1125) [Shuffle]_output: 3d549f01
(Unnamed Layer* 1126) [PluginV2DynamicExt]_output: 3d64ed15
/control_model/diffusion_model/input_blocks.2/input_blocks.2.1/norm_1/InstanceNormalization_output_0: 3d64ed15
(Unnamed Layer* 1128) [Shuffle]_output: 3d87495a
(Unnamed Layer* 1129) [PluginV2DynamicExt]_output: 3d482c14
/control_model/control_model/input_blocks.2/input_blocks.2.1/norm/InstanceNormalization_output_0: 3d482c14
/control_model/diffusion_model/input_blocks.2/input_blocks.2.1/norm/Reshape_1_output_0: 3d6d26a9
(Unnamed Layer* 1132) [Shuffle]_output: 3d889d9c
(Unnamed Layer* 1133) [PluginV2DynamicExt]_output: 3d4851fb
/control_model/control_model/input_blocks.2/input_blocks.2.1/norm_1/InstanceNormalization_output_0: 3d4851fb
/control_model/diffusion_model/input_blocks.2/input_blocks.2.1/norm_1/Reshape_1_output_0: 3d64ed15
/control_model/control_model/input_blocks.2/input_blocks.2.1/norm/Reshape_1_output_0: 3d482c14
(Unnamed Layer* 1137) [Constant]_output: 3b96aac1
(Unnamed Layer* 1138) [Shuffle]_output: 3b96aac1
/control_model/diffusion_model/input_blocks.2/input_blocks.2.1/norm/Mul_output_0: 3c9077f4
/control_model/control_model/input_blocks.2/input_blocks.2.1/norm_1/Reshape_1_output_0: 3d4851fb
(Unnamed Layer* 1141) [Constant]_output: 3b96aac1
(Unnamed Layer* 1142) [Shuffle]_output: 3b96aac1
/control_model/diffusion_model/input_blocks.2/input_blocks.2.1/norm_1/Mul_output_0: 3c908acc
(Unnamed Layer* 1144) [Constant]_output: 3b8f7503
(Unnamed Layer* 1145) [Shuffle]_output: 3b8f7503
/control_model/control_model/input_blocks.2/input_blocks.2.1/norm/Mul_output_0: 3c74fc16
(Unnamed Layer* 1147) [Constant]_output: 3ab0aef5
(Unnamed Layer* 1148) [Shuffle]_output: 3ab0aef5
/control_model/diffusion_model/input_blocks.2/input_blocks.2.1/norm/Add_output_0: 3c8caafc
(Unnamed Layer* 1150) [Constant]_output: 3b8f7503
(Unnamed Layer* 1151) [Shuffle]_output: 3b8f7503
/control_model/control_model/input_blocks.2/input_blocks.2.1/norm_1/Mul_output_0: 3c75679f
(Unnamed Layer* 1153) [Constant]_output: 3ab0aef5
(Unnamed Layer* 1154) [Shuffle]_output: 3ab0aef5
/control_model/diffusion_model/input_blocks.2/input_blocks.2.1/norm_1/Add_output_0: 3c8d958c
(Unnamed Layer* 1156) [Constant]_output: 3ab03b01
(Unnamed Layer* 1157) [Shuffle]_output: 3ab03b01
