TRT-8601-EntropyCalibration2
input.1: 3d1e1713
onnx::Slice_1: 3ccb2cb2
onnx::Slice_2: 3d2e7b70
onnx::MatMul_3: 3d8911b1
onnx::Add_4: 3cf74f38
onnx::MatMul_5: 3d8911b1
onnx::Div_6: 3c6f9f22
onnx::Sub_7: 3c71f8b3
onnx::Mul_8: 3c345daa
/control_model/control_model/input_blocks.0/input_blocks.0.0/Conv_output_0: 3c918d7b
/control_model/control_model/Slice_output_0: 3d682426
(Unnamed Layer* 2) [Constant]_output: 3b233d7f
(Unnamed Layer* 3) [Shuffle]_output: 3b233d7f
/control_model/control_model/input_blocks.1/input_blocks.1.1/transformer_blocks.0/attn2/to_k/MatMul_output_0: 3da3b226
(Unnamed Layer* 5) [Constant]_output: 3a6c4d48
(Unnamed Layer* 6) [Shuffle]_output: 3a6c4d48
/control_model/control_model/input_blocks.1/input_blocks.1.1/transformer_blocks.0/attn2/to_v/MatMul_output_0: 3d20e636
/control_model/control_model/Slice_1_output_0: 3c064f2a
(Unnamed Layer* 9) [Constant]_output: 3b470c52
(Unnamed Layer* 10) [Shuffle]_output: 3b470c52
/control_model/control_model/input_blocks.2/input_blocks.2.1/transformer_blocks.0/attn2/to_k/MatMul_output_0: 3db9796f
(Unnamed Layer* 12) [Constant]_output: 3a966e88
(Unnamed Layer* 13) [Shuffle]_output: 3a966e88
/control_model/control_model/input_blocks.2/input_blocks.2.1/transformer_blocks.0/attn2/to_v/MatMul_output_0: 3d236922
/control_model/control_model/Slice_2_output_0: 3ce355ec
(Unnamed Layer* 16) [Constant]_output: 3b058cff
(Unnamed Layer* 17) [Shuffle]_output: 3b058cff
/control_model/control_model/input_blocks.4/input_blocks.4.1/transformer_blocks.0/attn2/to_k/MatMul_output_0: 3dad286d
(Unnamed Layer* 19) [Constant]_output: 3a95aca2
(Unnamed Layer* 20) [Shuffle]_output: 3a95aca2
/control_model/control_model/input_blocks.4/input_blocks.4.1/transformer_blocks.0/attn2/to_v/MatMul_output_0: 3d9d3ae0
/control_model/control_model/Slice_3_output_0: 3bb68a7a
(Unnamed Layer* 23) [Constant]_output: 3b0158a6
(Unnamed Layer* 24) [Shuffle]_output: 3b0158a6
/control_model/control_model/input_blocks.5/input_blocks.5.1/transformer_blocks.0/attn2/to_k/MatMul_output_0: 3db49afc
(Unnamed Layer* 26) [Constant]_output: 3a962849
(Unnamed Layer* 27) [Shuffle]_output: 3a962849
/control_model/control_model/input_blocks.5/input_blocks.5.1/transformer_blocks.0/attn2/to_v/MatMul_output_0: 3da82451
/control_model/control_model/Slice_4_output_0: 3cca8f15
(Unnamed Layer* 30) [Constant]_output: 3af60e58
(Unnamed Layer* 31) [Shuffle]_output: 3af60e58
/control_model/control_model/input_blocks.7/input_blocks.7.1/transformer_blocks.0/attn2/to_k/MatMul_output_0: 3d97a3e8
(Unnamed Layer* 33) [Constant]_output: 3a9c13e4
(Unnamed Layer* 34) [Shuffle]_output: 3a9c13e4
/control_model/control_model/input_blocks.7/input_blocks.7.1/transformer_blocks.0/attn2/to_v/MatMul_output_0: 3d31de8f
/control_model/control_model/Slice_5_output_0: 3c620cfd
(Unnamed Layer* 37) [Constant]_output: 3af11985
(Unnamed Layer* 38) [Shuffle]_output: 3af11985
/control_model/control_model/input_blocks.8/input_blocks.8.1/transformer_blocks.0/attn2/to_k/MatMul_output_0: 3db84eb7
(Unnamed Layer* 40) [Constant]_output: 3aa75dd0
(Unnamed Layer* 41) [Shuffle]_output: 3aa75dd0
/control_model/control_model/input_blocks.8/input_blocks.8.1/transformer_blocks.0/attn2/to_v/MatMul_output_0: 3d1fed09
/control_model/control_model/Slice_6_output_0: 3c847f69
/control_model/control_model/Slice_7_output_0: 3bb6959f
/control_model/control_model/Slice_8_output_0: 3c22b11d
(Unnamed Layer* 46) [Constant]_output: 3ad09cf4
(Unnamed Layer* 47) [Shuffle]_output: 3ad09cf4
/control_model/control_model/middle_block.1/transformer_blocks.0/attn2/to_k/MatMul_output_0: 3da15128
(Unnamed Layer* 49) [Constant]_output: 3ac9a451
(Unnamed Layer* 50) [Shuffle]_output: 3ac9a451
/control_model/control_model/middle_block.1/transformer_blocks.0/attn2/to_v/MatMul_output_0: 3d24f60d
/control_model/control_model/Slice_9_output_0: 3c1d79c3
/control_model/diffusion_model/input_blocks.0/input_blocks.0.0/Conv_output_0: 3c9fa132
/control_model/diffusion_model/Slice_output_0: 3d9137ee
(Unnamed Layer* 55) [Constant]_output: 3b27476a
(Unnamed Layer* 56) [Shuffle]_output: 3b27476a
/control_model/diffusion_model/input_blocks.1/input_blocks.1.1/transformer_blocks.0/attn2/to_k/MatMul_output_0: 3d9ff99a
(Unnamed Layer* 58) [Constant]_output: 3a8be35e
(Unnamed Layer* 59) [Shuffle]_output: 3a8be35e
/control_model/diffusion_model/input_blocks.1/input_blocks.1.1/transformer_blocks.0/attn2/to_v/MatMul_output_0: 3d1b1ee9
/control_model/diffusion_model/Slice_1_output_0: 3c9bfb0f
(Unnamed Layer* 62) [Constant]_output: 3b37a1d8
(Unnamed Layer* 63) [Shuffle]_output: 3b37a1d8
/control_model/diffusion_model/input_blocks.2/input_blocks.2.1/transformer_blocks.0/attn2/to_k/MatMul_output_0: 3db2941f
(Unnamed Layer* 65) [Constant]_output: 3a54b2c8
(Unnamed Layer* 66) [Shuffle]_output: 3a54b2c8
/control_model/diffusion_model/input_blocks.2/input_blocks.2.1/transformer_blocks.0/attn2/to_v/MatMul_output_0: 3d2224e6
/control_model/diffusion_model/Slice_2_output_0: 3d128dac
(Unnamed Layer* 69) [Constant]_output: 3b04b0e5
(Unnamed Layer* 70) [Shuffle]_output: 3b04b0e5
/control_model/diffusion_model/input_blocks.4/input_blocks.4.1/transformer_blocks.0/attn2/to_k/MatMul_output_0: 3d9f5948
(Unnamed Layer* 72) [Constant]_output: 3a92b3b8
(Unnamed Layer* 73) [Shuffle]_output: 3a92b3b8
/control_model/diffusion_model/input_blocks.4/input_blocks.4.1/transformer_blocks.0/attn2/to_v/MatMul_output_0: 3d9edd44
/control_model/diffusion_model/Slice_3_output_0: 3caa18cb
(Unnamed Layer* 76) [Constant]_output: 3b0727e7
(Unnamed Layer* 77) [Shuffle]_output: 3b0727e7
/control_model/diffusion_model/input_blocks.5/input_blocks.5.1/transformer_blocks.0/attn2/to_k/MatMul_output_0: 3da7870f
(Unnamed Layer* 79) [Constant]_output: 3a926ffe
(Unnamed Layer* 80) [Shuffle]_output: 3a926ffe
/control_model/diffusion_model/input_blocks.5/input_blocks.5.1/transformer_blocks.0/attn2/to_v/MatMul_output_0: 3da2d21d
/control_model/diffusion_model/Slice_4_output_0: 3d22af03
(Unnamed Layer* 83) [Constant]_output: 3aeb443c
(Unnamed Layer* 84) [Shuffle]_output: 3aeb443c
/control_model/diffusion_model/input_blocks.7/input_blocks.7.1/transformer_blocks.0/attn2/to_k/MatMul_output_0: 3da1120f
(Unnamed Layer* 86) [Constant]_output: 3a9ff90a
(Unnamed Layer* 87) [Shuffle]_output: 3a9ff90a
/control_model/diffusion_model/input_blocks.7/input_blocks.7.1/transformer_blocks.0/attn2/to_v/MatMul_output_0: 3d2083d4
/control_model/diffusion_model/Slice_5_output_0: 3ce49d5c
(Unnamed Layer* 90) [Constant]_output: 3b06006a
(Unnamed Layer* 91) [Shuffle]_output: 3b06006a
/control_model/diffusion_model/input_blocks.8/input_blocks.8.1/transformer_blocks.0/attn2/to_k/MatMul_output_0: 3db07075
(Unnamed Layer* 93) [Constant]_output: 3aa0ccba
(Unnamed Layer* 94) [Shuffle]_output: 3aa0ccba
/control_model/diffusion_model/input_blocks.8/input_blocks.8.1/transformer_blocks.0/attn2/to_v/MatMul_output_0: 3d1d6836
/control_model/diffusion_model/Slice_6_output_0: 3cfa5af1
/control_model/diffusion_model/Slice_7_output_0: 3c384564
/control_model/diffusion_model/Slice_8_output_0: 3ca6d554
(Unnamed Layer* 99) [Constant]_output: 3ad8de3f
(Unnamed Layer* 100) [Shuffle]_output: 3ad8de3f
/control_model/diffusion_model/middle_block.1/transformer_blocks.0/attn2/to_k/MatMul_output_0: 3d900e9b
(Unnamed Layer* 102) [Constant]_output: 3ac1fd46
(Unnamed Layer* 103) [Shuffle]_output: 3ac1fd46
/control_model/diffusion_model/middle_block.1/transformer_blocks.0/attn2/to_v/MatMul_output_0: 3d255769
/control_model/diffusion_model/Slice_9_output_0: 3ca63a13
/control_model/diffusion_model/Slice_10_output_0: 3c49398e
/control_model/diffusion_model/Slice_11_output_0: 3caa1208
/control_model/diffusion_model/Slice_12_output_0: 3c747b31
/control_model/diffusion_model/Slice_13_output_0: 3d0a9994
(Unnamed Layer* 110) [Constant]_output: 3b10281a
(Unnamed Layer* 111) [Shuffle]_output: 3b10281a
/control_model/diffusion_model/output_blocks.3/output_blocks.3.1/transformer_blocks.0/attn2/to_k/MatMul_output_0: 3da26a0e
(Unnamed Layer* 113) [Constant]_output: 3acf0355
(Unnamed Layer* 114) [Shuffle]_output: 3acf0355
/control_model/diffusion_model/output_blocks.3/output_blocks.3.1/transformer_blocks.0/attn2/to_v/MatMul_output_0: 3d134961
/control_model/diffusion_model/Slice_14_output_0: 3ce3d0c8
(Unnamed Layer* 117) [Constant]_output: 3b1f383e
(Unnamed Layer* 118) [Shuffle]_output: 3b1f383e
/control_model/diffusion_model/output_blocks.4/output_blocks.4.1/transformer_blocks.0/attn2/to_k/MatMul_output_0: 3d86fd9e
(Unnamed Layer* 120) [Constant]_output: 3ad97bfe
(Unnamed Layer* 121) [Shuffle]_output: 3ad97bfe
/control_model/diffusion_model/output_blocks.4/output_blocks.4.1/transformer_blocks.0/attn2/to_v/MatMul_output_0: 3d33ba24
/control_model/diffusion_model/Slice_15_output_0: 3d04307a
(Unnamed Layer* 124) [Constant]_output: 3b1dba89
(Unnamed Layer* 125) [Shuffle]_output: 3b1dba89
/control_model/diffusion_model/output_blocks.5/output_blocks.5.1/transformer_blocks.0/attn2/to_k/MatMul_output_0: 3da4628b
(Unnamed Layer* 127) [Constant]_output: 3add1573
(Unnamed Layer* 128) [Shuffle]_output: 3add1573
/control_model/diffusion_model/output_blocks.5/output_blocks.5.1/transformer_blocks.0/attn2/to_v/MatMul_output_0: 3d2efd5b
/control_model/diffusion_model/Slice_16_output_0: 3cc61c5d
(Unnamed Layer* 131) [Constant]_output: 3b247906
(Unnamed Layer* 132) [Shuffle]_output: 3b247906
/control_model/diffusion_model/output_blocks.6/output_blocks.6.1/transformer_blocks.0/attn2/to_k/MatMul_output_0: 3dae000a
(Unnamed Layer* 134) [Constant]_output: 3b1137c2
(Unnamed Layer* 135) [Shuffle]_output: 3b1137c2
/control_model/diffusion_model/output_blocks.6/output_blocks.6.1/transformer_blocks.0/attn2/to_v/MatMul_output_0: 3d7b94a6
/control_model/diffusion_model/Slice_17_output_0: 3c803ad0
(Unnamed Layer* 138) [Constant]_output: 3b01aec8
(Unnamed Layer* 139) [Shuffle]_output: 3b01aec8
/control_model/diffusion_model/output_blocks.7/output_blocks.7.1/transformer_blocks.0/attn2/to_k/MatMul_output_0: 3d9ceabf
(Unnamed Layer* 141) [Constant]_output: 3acc2bd1
(Unnamed Layer* 142) [Shuffle]_output: 3acc2bd1
/control_model/diffusion_model/output_blocks.7/output_blocks.7.1/transformer_blocks.0/attn2/to_v/MatMul_output_0: 3d6c02b5
/control_model/diffusion_model/Slice_18_output_0: 3c81b475
(Unnamed Layer* 145) [Constant]_output: 3af1e64f
(Unnamed Layer* 146) [Shuffle]_output: 3af1e64f
/control_model/diffusion_model/output_blocks.8/output_blocks.8.1/transformer_blocks.0/attn2/to_k/MatMul_output_0: 3d8f9215
(Unnamed Layer* 148) [Constant]_output: 3ab4c37e
(Unnamed Layer* 149) [Shuffle]_output: 3ab4c37e
/control_model/diffusion_model/output_blocks.8/output_blocks.8.1/transformer_blocks.0/attn2/to_v/MatMul_output_0: 3d59d35c
/control_model/diffusion_model/Slice_19_output_0: 3c3db315
(Unnamed Layer* 152) [Constant]_output: 3b608e3e
(Unnamed Layer* 153) [Shuffle]_output: 3b608e3e
/control_model/diffusion_model/output_blocks.9/output_blocks.9.1/transformer_blocks.0/attn2/to_k/MatMul_output_0: 3dbb381c
(Unnamed Layer* 155) [Constant]_output: 3aa5ed3a
(Unnamed Layer* 156) [Shuffle]_output: 3aa5ed3a
/control_model/diffusion_model/output_blocks.9/output_blocks.9.1/transformer_blocks.0/attn2/to_v/MatMul_output_0: 3d179890
/control_model/diffusion_model/Slice_20_output_0: 3c95eb7f
(Unnamed Layer* 159) [Constant]_output: 3b4c155f
(Unnamed Layer* 160) [Shuffle]_output: 3b4c155f
/control_model/diffusion_model/output_blocks.10/output_blocks.10.1/transformer_blocks.0/attn2/to_k/MatMul_output_0: 3dddf916
(Unnamed Layer* 162) [Constant]_output: 3aa5e4c5
(Unnamed Layer* 163) [Shuffle]_output: 3aa5e4c5
/control_model/diffusion_model/output_blocks.10/output_blocks.10.1/transformer_blocks.0/attn2/to_v/MatMul_output_0: 3d5b2301
/control_model/diffusion_model/Slice_21_output_0: 3cbbcdce
(Unnamed Layer* 166) [Constant]_output: 3b4d5d47
(Unnamed Layer* 167) [Shuffle]_output: 3b4d5d47
/control_model/diffusion_model/output_blocks.11/output_blocks.11.1/transformer_blocks.0/attn2/to_k/MatMul_output_0: 3dd0768d
(Unnamed Layer* 169) [Constant]_output: 3aac2eee
(Unnamed Layer* 170) [Shuffle]_output: 3aac2eee
/control_model/diffusion_model/output_blocks.11/output_blocks.11.1/transformer_blocks.0/attn2/to_v/MatMul_output_0: 3d40d28d
(Unnamed Layer* 172) [Constant]_output: 3b233d7f
(Unnamed Layer* 173) [Shuffle]_output: 3b233d7f
/control_model/control_model/input_blocks.1/input_blocks.1.1/transformer_blocks.0/attn2/to_k_1/MatMul_output_0: 3d9fdac1
(Unnamed Layer* 175) [Constant]_output: 3a6c4d48
(Unnamed Layer* 176) [Shuffle]_output: 3a6c4d48
/control_model/control_model/input_blocks.1/input_blocks.1.1/transformer_blocks.0/attn2/to_v_1/MatMul_output_0: 3d595232
(Unnamed Layer* 178) [Constant]_output: 3b470c52
(Unnamed Layer* 179) [Shuffle]_output: 3b470c52
/control_model/control_model/input_blocks.2/input_blocks.2.1/transformer_blocks.0/attn2/to_k_1/MatMul_output_0: 3dafda21
(Unnamed Layer* 181) [Constant]_output: 3a966e88
(Unnamed Layer* 182) [Shuffle]_output: 3a966e88
/control_model/control_model/input_blocks.2/input_blocks.2.1/transformer_blocks.0/attn2/to_v_1/MatMul_output_0: 3d2ba1c4
(Unnamed Layer* 184) [Constant]_output: 3b058cff
(Unnamed Layer* 185) [Shuffle]_output: 3b058cff
/control_model/control_model/input_blocks.4/input_blocks.4.1/transformer_blocks.0/attn2/to_k_1/MatMul_output_0: 3db83932
(Unnamed Layer* 187) [Constant]_output: 3a95aca2
(Unnamed Layer* 188) [Shuffle]_output: 3a95aca2
/control_model/control_model/input_blocks.4/input_blocks.4.1/transformer_blocks.0/attn2/to_v_1/MatMul_output_0: 3da51005
(Unnamed Layer* 190) [Constant]_output: 3b0158a6
(Unnamed Layer* 191) [Shuffle]_output: 3b0158a6
/control_model/control_model/input_blocks.5/input_blocks.5.1/transformer_blocks.0/attn2/to_k_1/MatMul_output_0: 3db49afc
(Unnamed Layer* 193) [Constant]_output: 3a962849
(Unnamed Layer* 194) [Shuffle]_output: 3a962849
/control_model/control_model/input_blocks.5/input_blocks.5.1/transformer_blocks.0/attn2/to_v_1/MatMul_output_0: 3dafffe8
(Unnamed Layer* 196) [Constant]_output: 3af60e58
(Unnamed Layer* 197) [Shuffle]_output: 3af60e58
/control_model/control_model/input_blocks.7/input_blocks.7.1/transformer_blocks.0/attn2/to_k_1/MatMul_output_0: 3d9738e1
(Unnamed Layer* 199) [Constant]_output: 3a9c13e4
(Unnamed Layer* 200) [Shuffle]_output: 3a9c13e4
/control_model/control_model/input_blocks.7/input_blocks.7.1/transformer_blocks.0/attn2/to_v_1/MatMul_output_0: 3d34aafe
(Unnamed Layer* 202) [Constant]_output: 3af11985
(Unnamed Layer* 203) [Shuffle]_output: 3af11985
/control_model/control_model/input_blocks.8/input_blocks.8.1/transformer_blocks.0/attn2/to_k_1/MatMul_output_0: 3db84eb7
(Unnamed Layer* 205) [Constant]_output: 3aa75dd0
(Unnamed Layer* 206) [Shuffle]_output: 3aa75dd0
/control_model/control_model/input_blocks.8/input_blocks.8.1/transformer_blocks.0/attn2/to_v_1/MatMul_output_0: 3d22ea4a
(Unnamed Layer* 208) [Constant]_output: 3ad09cf4
(Unnamed Layer* 209) [Shuffle]_output: 3ad09cf4
/control_model/control_model/middle_block.1/transformer_blocks.0/attn2/to_k_1/MatMul_output_0: 3d91b986
(Unnamed Layer* 211) [Constant]_output: 3ac9a451
(Unnamed Layer* 212) [Shuffle]_output: 3ac9a451
/control_model/control_model/middle_block.1/transformer_blocks.0/attn2/to_v_1/MatMul_output_0: 3d26c588
(Unnamed Layer* 214) [Constant]_output: 3b27476a
(Unnamed Layer* 215) [Shuffle]_output: 3b27476a
/control_model/diffusion_model/input_blocks.1/input_blocks.1.1/transformer_blocks.0/attn2/to_k_1/MatMul_output_0: 3d9ff99a
(Unnamed Layer* 217) [Constant]_output: 3a8be35e
(Unnamed Layer* 218) [Shuffle]_output: 3a8be35e
/control_model/diffusion_model/input_blocks.1/input_blocks.1.1/transformer_blocks.0/attn2/to_v_1/MatMul_output_0: 3d47da21
(Unnamed Layer* 220) [Constant]_output: 3b37a1d8
(Unnamed Layer* 221) [Shuffle]_output: 3b37a1d8
/control_model/diffusion_model/input_blocks.2/input_blocks.2.1/transformer_blocks.0/attn2/to_k_1/MatMul_output_0: 3db2941f
(Unnamed Layer* 223) [Constant]_output: 3a54b2c8
(Unnamed Layer* 224) [Shuffle]_output: 3a54b2c8
/control_model/diffusion_model/input_blocks.2/input_blocks.2.1/transformer_blocks.0/attn2/to_v_1/MatMul_output_0: 3d25a971
(Unnamed Layer* 226) [Constant]_output: 3b04b0e5
(Unnamed Layer* 227) [Shuffle]_output: 3b04b0e5
/control_model/diffusion_model/input_blocks.4/input_blocks.4.1/transformer_blocks.0/attn2/to_k_1/MatMul_output_0: 3da4e1de
(Unnamed Layer* 229) [Constant]_output: 3a92b3b8
(Unnamed Layer* 230) [Shuffle]_output: 3a92b3b8
/control_model/diffusion_model/input_blocks.4/input_blocks.4.1/transformer_blocks.0/attn2/to_v_1/MatMul_output_0: 3daa77e5
(Unnamed Layer* 232) [Constant]_output: 3b0727e7
(Unnamed Layer* 233) [Shuffle]_output: 3b0727e7
/control_model/diffusion_model/input_blocks.5/input_blocks.5.1/transformer_blocks.0/attn2/to_k_1/MatMul_output_0: 3db12012
(Unnamed Layer* 235) [Constant]_output: 3a926ffe
(Unnamed Layer* 236) [Shuffle]_output: 3a926ffe
/control_model/diffusion_model/input_blocks.5/input_blocks.5.1/transformer_blocks.0/attn2/to_v_1/MatMul_output_0: 3da760a5
(Unnamed Layer* 238) [Constant]_output: 3aeb443c
(Unnamed Layer* 239) [Shuffle]_output: 3aeb443c
/control_model/diffusion_model/input_blocks.7/input_blocks.7.1/transformer_blocks.0/attn2/to_k_1/MatMul_output_0: 3da582f8
(Unnamed Layer* 241) [Constant]_output: 3a9ff90a
(Unnamed Layer* 242) [Shuffle]_output: 3a9ff90a
/control_model/diffusion_model/input_blocks.7/input_blocks.7.1/transformer_blocks.0/attn2/to_v_1/MatMul_output_0: 3d22edbf
(Unnamed Layer* 244) [Constant]_output: 3b06006a
(Unnamed Layer* 245) [Shuffle]_output: 3b06006a
/control_model/diffusion_model/input_blocks.8/input_blocks.8.1/transformer_blocks.0/attn2/to_k_1/MatMul_output_0: 3dacd6e9
(Unnamed Layer* 247) [Constant]_output: 3aa0ccba
(Unnamed Layer* 248) [Shuffle]_output: 3aa0ccba
/control_model/diffusion_model/input_blocks.8/input_blocks.8.1/transformer_blocks.0/attn2/to_v_1/MatMul_output_0: 3d1d6836
(Unnamed Layer* 250) [Constant]_output: 3ad8de3f
(Unnamed Layer* 251) [Shuffle]_output: 3ad8de3f
/control_model/diffusion_model/middle_block.1/transformer_blocks.0/attn2/to_k_1/MatMul_output_0: 3d900e9b
(Unnamed Layer* 253) [Constant]_output: 3ac1fd46
(Unnamed Layer* 254) [Shuffle]_output: 3ac1fd46
/control_model/diffusion_model/middle_block.1/transformer_blocks.0/attn2/to_v_1/MatMul_output_0: 3d24ea8e
(Unnamed Layer* 256) [Constant]_output: 3b10281a
(Unnamed Layer* 257) [Shuffle]_output: 3b10281a
/control_model/diffusion_model/output_blocks.3/output_blocks.3.1/transformer_blocks.0/attn2/to_k_1/MatMul_output_0: 3da26a0e
(Unnamed Layer* 259) [Constant]_output: 3acf0355
(Unnamed Layer* 260) [Shuffle]_output: 3acf0355
/control_model/diffusion_model/output_blocks.3/output_blocks.3.1/transformer_blocks.0/attn2/to_v_1/MatMul_output_0: 3d12a125
(Unnamed Layer* 262) [Constant]_output: 3b1f383e
(Unnamed Layer* 263) [Shuffle]_output: 3b1f383e
/control_model/diffusion_model/output_blocks.4/output_blocks.4.1/transformer_blocks.0/attn2/to_k_1/MatMul_output_0: 3d86fd9e
(Unnamed Layer* 265) [Constant]_output: 3ad97bfe
(Unnamed Layer* 266) [Shuffle]_output: 3ad97bfe
/control_model/diffusion_model/output_blocks.4/output_blocks.4.1/transformer_blocks.0/attn2/to_v_1/MatMul_output_0: 3d2a9dbf
(Unnamed Layer* 268) [Constant]_output: 3b1dba89
(Unnamed Layer* 269) [Shuffle]_output: 3b1dba89
/control_model/diffusion_model/output_blocks.5/output_blocks.5.1/transformer_blocks.0/attn2/to_k_1/MatMul_output_0: 3da4628b
(Unnamed Layer* 271) [Constant]_output: 3add1573
(Unnamed Layer* 272) [Shuffle]_output: 3add1573
/control_model/diffusion_model/output_blocks.5/output_blocks.5.1/transformer_blocks.0/attn2/to_v_1/MatMul_output_0: 3d2efd5b
(Unnamed Layer* 274) [Constant]_output: 3b247906
(Unnamed Layer* 275) [Shuffle]_output: 3b247906
/control_model/diffusion_model/output_blocks.6/output_blocks.6.1/transformer_blocks.0/attn2/to_k_1/MatMul_output_0: 3dae000a
(Unnamed Layer* 277) [Constant]_output: 3b1137c2
(Unnamed Layer* 278) [Shuffle]_output: 3b1137c2
/control_model/diffusion_model/output_blocks.6/output_blocks.6.1/transformer_blocks.0/attn2/to_v_1/MatMul_output_0: 3d7d8f86
(Unnamed Layer* 280) [Constant]_output: 3b01aec8
(Unnamed Layer* 281) [Shuffle]_output: 3b01aec8
/control_model/diffusion_model/output_blocks.7/output_blocks.7.1/transformer_blocks.0/attn2/to_k_1/MatMul_output_0: 3d9ceabf
(Unnamed Layer* 283) [Constant]_output: 3acc2bd1
(Unnamed Layer* 284) [Shuffle]_output: 3acc2bd1
/control_model/diffusion_model/output_blocks.7/output_blocks.7.1/transformer_blocks.0/attn2/to_v_1/MatMul_output_0: 3d799073
(Unnamed Layer* 286) [Constant]_output: 3af1e64f
(Unnamed Layer* 287) [Shuffle]_output: 3af1e64f
/control_model/diffusion_model/output_blocks.8/output_blocks.8.1/transformer_blocks.0/attn2/to_k_1/MatMul_output_0: 3d8ce029
(Unnamed Layer* 289) [Constant]_output: 3ab4c37e
(Unnamed Layer* 290) [Shuffle]_output: 3ab4c37e
/control_model/diffusion_model/output_blocks.8/output_blocks.8.1/transformer_blocks.0/attn2/to_v_1/MatMul_output_0: 3d60331a
(Unnamed Layer* 292) [Constant]_output: 3b608e3e
(Unnamed Layer* 293) [Shuffle]_output: 3b608e3e
/control_model/diffusion_model/output_blocks.9/output_blocks.9.1/transformer_blocks.0/attn2/to_k_1/MatMul_output_0: 3dbfc300
(Unnamed Layer* 295) [Constant]_output: 3aa5ed3a
(Unnamed Layer* 296) [Shuffle]_output: 3aa5ed3a
/control_model/diffusion_model/output_blocks.9/output_blocks.9.1/transformer_blocks.0/attn2/to_v_1/MatMul_output_0: 3d1642dd
(Unnamed Layer* 298) [Constant]_output: 3b4c155f
(Unnamed Layer* 299) [Shuffle]_output: 3b4c155f
/control_model/diffusion_model/output_blocks.10/output_blocks.10.1/transformer_blocks.0/attn2/to_k_1/MatMul_output_0: 3dc1b1b2
(Unnamed Layer* 301) [Constant]_output: 3aa5e4c5
(Unnamed Layer* 302) [Shuffle]_output: 3aa5e4c5
/control_model/diffusion_model/output_blocks.10/output_blocks.10.1/transformer_blocks.0/attn2/to_v_1/MatMul_output_0: 3d54a7de
(Unnamed Layer* 304) [Constant]_output: 3b4d5d47
(Unnamed Layer* 305) [Shuffle]_output: 3b4d5d47
/control_model/diffusion_model/output_blocks.11/output_blocks.11.1/transformer_blocks.0/attn2/to_k_1/MatMul_output_0: 3dd08ff9
(Unnamed Layer* 307) [Constant]_output: 3aac2eee
(Unnamed Layer* 308) [Shuffle]_output: 3aac2eee
/control_model/diffusion_model/output_blocks.11/output_blocks.11.1/transformer_blocks.0/attn2/to_v_1/MatMul_output_0: 3d4a6552
(Unnamed Layer* 311) [Shuffle]_output: 3c010a14
/Sub_2_output_0: 3c00dba4
/Sqrt_1_output_0: 3c79e536
/control_model/control_model/Add_output_0: 3cf66597
/control_model/control_model/input_blocks.1/input_blocks.1.1/transformer_blocks.0/attn2/Reshape_2_output_0: 3da3b226
/control_model/control_model/input_blocks.1/input_blocks.1.1/transformer_blocks.0/attn2/Reshape_4_output_0: 3d20e636
/control_model/control_model/input_blocks.2/input_blocks.2.1/transformer_blocks.0/attn2/Reshape_2_output_0: 3db9796f
/control_model/control_model/input_blocks.2/input_blocks.2.1/transformer_blocks.0/attn2/Reshape_4_output_0: 3d236922
/control_model/control_model/input_blocks.4/input_blocks.4.1/transformer_blocks.0/attn2/Reshape_2_output_0: 3dad286d
/control_model/control_model/input_blocks.4/input_blocks.4.1/transformer_blocks.0/attn2/Reshape_4_output_0: 3d9d3ae0
/control_model/control_model/input_blocks.5/input_blocks.5.1/transformer_blocks.0/attn2/Reshape_2_output_0: 3db49afc
/control_model/control_model/input_blocks.5/input_blocks.5.1/transformer_blocks.0/attn2/Reshape_4_output_0: 3da82451
/control_model/control_model/input_blocks.7/input_blocks.7.1/transformer_blocks.0/attn2/Reshape_2_output_0: 3d97a3e8
/control_model/control_model/input_blocks.7/input_blocks.7.1/transformer_blocks.0/attn2/Reshape_4_output_0: 3d31de8f
/control_model/control_model/input_blocks.8/input_blocks.8.1/transformer_blocks.0/attn2/Reshape_2_output_0: 3db84eb7
/control_model/control_model/input_blocks.8/input_blocks.8.1/transformer_blocks.0/attn2/Reshape_4_output_0: 3d1fed09
/control_model/control_model/middle_block.1/transformer_blocks.0/attn2/Reshape_2_output_0: 3da15128
/control_model/control_model/middle_block.1/transformer_blocks.0/attn2/Reshape_4_output_0: 3d24f60d
/control_model/diffusion_model/input_blocks.1/input_blocks.1.0/in_layers/in_layers.0/Reshape_output_0: 3c9fa132
/control_model/diffusion_model/input_blocks.1/input_blocks.1.1/transformer_blocks.0/attn2/Reshape_2_output_0: 3d9ff99a
/control_model/diffusion_model/input_blocks.1/input_blocks.1.1/transformer_blocks.0/attn2/Reshape_4_output_0: 3d1b1ee9
/control_model/diffusion_model/input_blocks.2/input_blocks.2.1/transformer_blocks.0/attn2/Reshape_2_output_0: 3db2941f
/control_model/diffusion_model/input_blocks.2/input_blocks.2.1/transformer_blocks.0/attn2/Reshape_4_output_0: 3d2224e6
/control_model/diffusion_model/input_blocks.4/input_blocks.4.1/transformer_blocks.0/attn2/Reshape_2_output_0: 3d9f5948
/control_model/diffusion_model/input_blocks.4/input_blocks.4.1/transformer_blocks.0/attn2/Reshape_4_output_0: 3d9edd44
/control_model/diffusion_model/input_blocks.5/input_blocks.5.1/transformer_blocks.0/attn2/Reshape_2_output_0: 3da7870f
/control_model/diffusion_model/input_blocks.5/input_blocks.5.1/transformer_blocks.0/attn2/Reshape_4_output_0: 3da2d21d
/control_model/diffusion_model/input_blocks.7/input_blocks.7.1/transformer_blocks.0/attn2/Reshape_2_output_0: 3da1120f
/control_model/diffusion_model/input_blocks.7/input_blocks.7.1/transformer_blocks.0/attn2/Reshape_4_output_0: 3d2083d4
/control_model/diffusion_model/input_blocks.8/input_blocks.8.1/transformer_blocks.0/attn2/Reshape_2_output_0: 3db07075
/control_model/diffusion_model/input_blocks.8/input_blocks.8.1/transformer_blocks.0/attn2/Reshape_4_output_0: 3d1d6836
/control_model/diffusion_model/middle_block.1/transformer_blocks.0/attn2/Reshape_2_output_0: 3d900e9b
/control_model/diffusion_model/middle_block.1/transformer_blocks.0/attn2/Reshape_4_output_0: 3d255769
/control_model/diffusion_model/output_blocks.3/output_blocks.3.1/transformer_blocks.0/attn2/Reshape_2_output_0: 3da26a0e
/control_model/diffusion_model/output_blocks.3/output_blocks.3.1/transformer_blocks.0/attn2/Reshape_4_output_0: 3d134961
/control_model/diffusion_model/output_blocks.4/output_blocks.4.1/transformer_blocks.0/attn2/Reshape_2_output_0: 3d86fd9e
/control_model/diffusion_model/output_blocks.4/output_blocks.4.1/transformer_blocks.0/attn2/Reshape_4_output_0: 3d33ba24
/control_model/diffusion_model/output_blocks.5/output_blocks.5.1/transformer_blocks.0/attn2/Reshape_2_output_0: 3da4628b
/control_model/diffusion_model/output_blocks.5/output_blocks.5.1/transformer_blocks.0/attn2/Reshape_4_output_0: 3d2efd5b
/control_model/diffusion_model/output_blocks.6/output_blocks.6.1/transformer_blocks.0/attn2/Reshape_2_output_0: 3dae000a
/control_model/diffusion_model/output_blocks.6/output_blocks.6.1/transformer_blocks.0/attn2/Reshape_4_output_0: 3d7b94a6
/control_model/diffusion_model/output_blocks.7/output_blocks.7.1/transformer_blocks.0/attn2/Reshape_2_output_0: 3d9ceabf
/control_model/diffusion_model/output_blocks.7/output_blocks.7.1/transformer_blocks.0/attn2/Reshape_4_output_0: 3d6c02b5
/control_model/diffusion_model/output_blocks.8/output_blocks.8.1/transformer_blocks.0/attn2/Reshape_2_output_0: 3d8f9215
/control_model/diffusion_model/output_blocks.8/output_blocks.8.1/transformer_blocks.0/attn2/Reshape_4_output_0: 3d59d35c
/control_model/diffusion_model/output_blocks.9/output_blocks.9.1/transformer_blocks.0/attn2/Reshape_2_output_0: 3dbb381c
/control_model/diffusion_model/output_blocks.9/output_blocks.9.1/transformer_blocks.0/attn2/Reshape_4_output_0: 3d179890
/control_model/diffusion_model/output_blocks.10/output_blocks.10.1/transformer_blocks.0/attn2/Reshape_2_output_0: 3dddf916
/control_model/diffusion_model/output_blocks.10/output_blocks.10.1/transformer_blocks.0/attn2/Reshape_4_output_0: 3d5b2301
/control_model/diffusion_model/output_blocks.11/output_blocks.11.1/transformer_blocks.0/attn2/Reshape_2_output_0: 3dd0768d
/control_model/diffusion_model/output_blocks.11/output_blocks.11.1/transformer_blocks.0/attn2/Reshape_4_output_0: 3d40d28d
/control_model/control_model/input_blocks.1/input_blocks.1.1/transformer_blocks.0/attn2_1/Reshape_1_output_0: 3d9fdac1
/control_model/control_model/input_blocks.1/input_blocks.1.1/transformer_blocks.0/attn2_1/Reshape_3_output_0: 3d595232
/control_model/control_model/input_blocks.2/input_blocks.2.1/transformer_blocks.0/attn2_1/Reshape_2_output_0: 3dafda21
/control_model/control_model/input_blocks.2/input_blocks.2.1/transformer_blocks.0/attn2_1/Reshape_4_output_0: 3d2ba1c4
/control_model/control_model/input_blocks.4/input_blocks.4.1/transformer_blocks.0/attn2_1/Reshape_2_output_0: 3db83932
/control_model/control_model/input_blocks.4/input_blocks.4.1/transformer_blocks.0/attn2_1/Reshape_4_output_0: 3da51005
/control_model/control_model/input_blocks.5/input_blocks.5.1/transformer_blocks.0/attn2_1/Reshape_2_output_0: 3db49afc
/control_model/control_model/input_blocks.5/input_blocks.5.1/transformer_blocks.0/attn2_1/Reshape_4_output_0: 3dafffe8
/control_model/control_model/input_blocks.7/input_blocks.7.1/transformer_blocks.0/attn2_1/Reshape_2_output_0: 3d9738e1
/control_model/control_model/input_blocks.7/input_blocks.7.1/transformer_blocks.0/attn2_1/Reshape_4_output_0: 3d34aafe
/control_model/control_model/input_blocks.8/input_blocks.8.1/transformer_blocks.0/attn2_1/Reshape_2_output_0: 3db84eb7
/control_model/control_model/input_blocks.8/input_blocks.8.1/transformer_blocks.0/attn2_1/Reshape_4_output_0: 3d22ea4a
/control_model/control_model/middle_block.1/transformer_blocks.0/attn2_1/Reshape_2_output_0: 3d91b986
/control_model/control_model/middle_block.1/transformer_blocks.0/attn2_1/Reshape_4_output_0: 3d26c588
/control_model/diffusion_model/input_blocks.1/input_blocks.1.1/transformer_blocks.0/attn2_1/Reshape_1_output_0: 3d9ff99a
/control_model/diffusion_model/input_blocks.1/input_blocks.1.1/transformer_blocks.0/attn2_1/Reshape_3_output_0: 3d47da21
/control_model/diffusion_model/input_blocks.2/input_blocks.2.1/transformer_blocks.0/attn2_1/Reshape_2_output_0: 3db2941f
/control_model/diffusion_model/input_blocks.2/input_blocks.2.1/transformer_blocks.0/attn2_1/Reshape_4_output_0: 3d25a971
/control_model/diffusion_model/input_blocks.4/input_blocks.4.1/transformer_blocks.0/attn2_1/Reshape_2_output_0: 3da4e1de
/control_model/diffusion_model/input_blocks.4/input_blocks.4.1/transformer_blocks.0/attn2_1/Reshape_4_output_0: 3daa77e5
/control_model/diffusion_model/input_blocks.5/input_blocks.5.1/transformer_blocks.0/attn2_1/Reshape_2_output_0: 3db12012
/control_model/diffusion_model/input_blocks.5/input_blocks.5.1/transformer_blocks.0/attn2_1/Reshape_4_output_0: 3da760a5
/control_model/diffusion_model/input_blocks.7/input_blocks.7.1/transformer_blocks.0/attn2_1/Reshape_2_output_0: 3da582f8
/control_model/diffusion_model/input_blocks.7/input_blocks.7.1/transformer_blocks.0/attn2_1/Reshape_4_output_0: 3d22edbf
/control_model/diffusion_model/input_blocks.8/input_blocks.8.1/transformer_blocks.0/attn2_1/Reshape_2_output_0: 3dacd6e9
/control_model/diffusion_model/input_blocks.8/input_blocks.8.1/transformer_blocks.0/attn2_1/Reshape_4_output_0: 3d1d6836
/control_model/diffusion_model/middle_block.1/transformer_blocks.0/attn2_1/Reshape_2_output_0: 3d900e9b
/control_model/diffusion_model/middle_block.1/transformer_blocks.0/attn2_1/Reshape_4_output_0: 3d24ea8e
/control_model/diffusion_model/output_blocks.3/output_blocks.3.1/transformer_blocks.0/attn2_1/Reshape_2_output_0: 3da26a0e
/control_model/diffusion_model/output_blocks.3/output_blocks.3.1/transformer_blocks.0/attn2_1/Reshape_4_output_0: 3d12a125
/control_model/diffusion_model/output_blocks.4/output_blocks.4.1/transformer_blocks.0/attn2_1/Reshape_2_output_0: 3d86fd9e
/control_model/diffusion_model/output_blocks.4/output_blocks.4.1/transformer_blocks.0/attn2_1/Reshape_4_output_0: 3d2a9dbf
/control_model/diffusion_model/output_blocks.5/output_blocks.5.1/transformer_blocks.0/attn2_1/Reshape_2_output_0: 3da4628b
/control_model/diffusion_model/output_blocks.5/output_blocks.5.1/transformer_blocks.0/attn2_1/Reshape_4_output_0: 3d2efd5b
/control_model/diffusion_model/output_blocks.6/output_blocks.6.1/transformer_blocks.0/attn2_1/Reshape_2_output_0: 3dae000a
/control_model/diffusion_model/output_blocks.6/output_blocks.6.1/transformer_blocks.0/attn2_1/Reshape_4_output_0: 3d7d8f86
/control_model/diffusion_model/output_blocks.7/output_blocks.7.1/transformer_blocks.0/attn2_1/Reshape_2_output_0: 3d9ceabf
/control_model/diffusion_model/output_blocks.7/output_blocks.7.1/transformer_blocks.0/attn2_1/Reshape_4_output_0: 3d799073
/control_model/diffusion_model/output_blocks.8/output_blocks.8.1/transformer_blocks.0/attn2_1/Reshape_2_output_0: 3d8ce029
/control_model/diffusion_model/output_blocks.8/output_blocks.8.1/transformer_blocks.0/attn2_1/Reshape_4_output_0: 3d60331a
/control_model/diffusion_model/output_blocks.9/output_blocks.9.1/transformer_blocks.0/attn2_1/Reshape_2_output_0: 3dbfc300
/control_model/diffusion_model/output_blocks.9/output_blocks.9.1/transformer_blocks.0/attn2_1/Reshape_4_output_0: 3d1642dd
/control_model/diffusion_model/output_blocks.10/output_blocks.10.1/transformer_blocks.0/attn2_1/Reshape_2_output_0: 3dc1b1b2
/control_model/diffusion_model/output_blocks.10/output_blocks.10.1/transformer_blocks.0/attn2_1/Reshape_4_output_0: 3d54a7de
/control_model/diffusion_model/output_blocks.11/output_blocks.11.1/transformer_blocks.0/attn2_1/Reshape_2_output_0: 3dd08ff9
/control_model/diffusion_model/output_blocks.11/output_blocks.11.1/transformer_blocks.0/attn2_1/Reshape_4_output_0: 3d4a6552
/Sqrt_output_0: 3c00f2da
/control_model/control_model/zero_convs.0/zero_convs.0.0/Conv_output_0: 3b2e2827
/control_model/control_model/input_blocks.1/input_blocks.1.0/in_layers/in_layers.0/Reshape_output_0: 3cf66597
/control_model/control_model/input_blocks.1/input_blocks.1.1/transformer_blocks.0/attn2/Transpose_1_output_0: 3da3b226
/control_model/control_model/input_blocks.1/input_blocks.1.1/transformer_blocks.0/attn2/Transpose_2_output_0: 3d20e636
/control_model/control_model/input_blocks.2/input_blocks.2.1/transformer_blocks.0/attn2/Transpose_1_output_0: 3db9796f
/control_model/control_model/input_blocks.2/input_blocks.2.1/transformer_blocks.0/attn2/Transpose_2_output_0: 3d236922
/control_model/control_model/input_blocks.4/input_blocks.4.1/transformer_blocks.0/attn2/Transpose_1_output_0: 3dad286d
/control_model/control_model/input_blocks.4/input_blocks.4.1/transformer_blocks.0/attn2/Transpose_2_output_0: 3d9d3ae0
/control_model/control_model/input_blocks.5/input_blocks.5.1/transformer_blocks.0/attn2/Transpose_1_output_0: 3db49afc
/control_model/control_model/input_blocks.5/input_blocks.5.1/transformer_blocks.0/attn2/Transpose_2_output_0: 3da82451
/control_model/control_model/input_blocks.7/input_blocks.7.1/transformer_blocks.0/attn2/Transpose_1_output_0: 3d97a3e8
/control_model/control_model/input_blocks.7/input_blocks.7.1/transformer_blocks.0/attn2/Transpose_2_output_0: 3d31de8f
/control_model/control_model/input_blocks.8/input_blocks.8.1/transformer_blocks.0/attn2/Transpose_1_output_0: 3db84eb7
/control_model/control_model/input_blocks.8/input_blocks.8.1/transformer_blocks.0/attn2/Transpose_2_output_0: 3d1fed09
/control_model/control_model/middle_block.1/transformer_blocks.0/attn2/Transpose_1_output_0: 3da15128
/control_model/control_model/middle_block.1/transformer_blocks.0/attn2/Transpose_2_output_0: 3d24f60d
(Unnamed Layer* 425) [Shuffle]_output: 3c9fa132
(Unnamed Layer* 426) [PluginV2DynamicExt]_output: 3d557388
/control_model/diffusion_model/input_blocks.1/input_blocks.1.0/in_layers/in_layers.0/InstanceNormalization_output_0: 3d557388
/control_model/diffusion_model/input_blocks.1/input_blocks.1.1/transformer_blocks.0/attn2/Transpose_1_output_0: 3d9ff99a
/control_model/diffusion_model/input_blocks.1/input_blocks.1.1/transformer_blocks.0/attn2/Transpose_2_output_0: 3d1b1ee9
/control_model/diffusion_model/input_blocks.2/input_blocks.2.1/transformer_blocks.0/attn2/Transpose_1_output_0: 3db2941f
/control_model/diffusion_model/input_blocks.2/input_blocks.2.1/transformer_blocks.0/attn2/Transpose_2_output_0: 3d2224e6
/control_model/diffusion_model/input_blocks.4/input_blocks.4.1/transformer_blocks.0/attn2/Transpose_1_output_0: 3d9f5948
/control_model/diffusion_model/input_blocks.4/input_blocks.4.1/transformer_blocks.0/attn2/Transpose_2_output_0: 3d9edd44
/control_model/diffusion_model/input_blocks.5/input_blocks.5.1/transformer_blocks.0/attn2/Transpose_1_output_0: 3da7870f
/control_model/diffusion_model/input_blocks.5/input_blocks.5.1/transformer_blocks.0/attn2/Transpose_2_output_0: 3da2d21d
/control_model/diffusion_model/input_blocks.7/input_blocks.7.1/transformer_blocks.0/attn2/Transpose_1_output_0: 3da1120f
/control_model/diffusion_model/input_blocks.7/input_blocks.7.1/transformer_blocks.0/attn2/Transpose_2_output_0: 3d2083d4
/control_model/diffusion_model/input_blocks.8/input_blocks.8.1/transformer_blocks.0/attn2/Transpose_1_output_0: 3db07075
/control_model/diffusion_model/input_blocks.8/input_blocks.8.1/transformer_blocks.0/attn2/Transpose_2_output_0: 3d1d6836
/control_model/diffusion_model/middle_block.1/transformer_blocks.0/attn2/Transpose_1_output_0: 3d900e9b
/control_model/diffusion_model/middle_block.1/transformer_blocks.0/attn2/Transpose_2_output_0: 3d255769
/control_model/diffusion_model/output_blocks.3/output_blocks.3.1/transformer_blocks.0/attn2/Transpose_1_output_0: 3da26a0e
/control_model/diffusion_model/output_blocks.3/output_blocks.3.1/transformer_blocks.0/attn2/Transpose_2_output_0: 3d134961
/control_model/diffusion_model/output_blocks.4/output_blocks.4.1/transformer_blocks.0/attn2/Transpose_1_output_0: 3d86fd9e
/control_model/diffusion_model/output_blocks.4/output_blocks.4.1/transformer_blocks.0/attn2/Transpose_2_output_0: 3d33ba24
/control_model/diffusion_model/output_blocks.5/output_blocks.5.1/transformer_blocks.0/attn2/Transpose_1_output_0: 3da4628b
/control_model/diffusion_model/output_blocks.5/output_blocks.5.1/transformer_blocks.0/attn2/Transpose_2_output_0: 3d2efd5b
/control_model/diffusion_model/output_blocks.6/output_blocks.6.1/transformer_blocks.0/attn2/Transpose_1_output_0: 3dae000a
/control_model/diffusion_model/output_blocks.6/output_blocks.6.1/transformer_blocks.0/attn2/Transpose_2_output_0: 3d7b94a6
/control_model/diffusion_model/output_blocks.7/output_blocks.7.1/transformer_blocks.0/attn2/Transpose_1_output_0: 3d9ceabf
/control_model/diffusion_model/output_blocks.7/output_blocks.7.1/transformer_blocks.0/attn2/Transpose_2_output_0: 3d6c02b5
/control_model/diffusion_model/output_blocks.8/output_blocks.8.1/transformer_blocks.0/attn2/Transpose_1_output_0: 3d8f9215
/control_model/diffusion_model/output_blocks.8/output_blocks.8.1/transformer_blocks.0/attn2/Transpose_2_output_0: 3d59d35c
/control_model/diffusion_model/output_blocks.9/output_blocks.9.1/transformer_blocks.0/attn2/Transpose_1_output_0: 3dbb381c
/control_model/diffusion_model/output_blocks.9/output_blocks.9.1/transformer_blocks.0/attn2/Transpose_2_output_0: 3d179890
/control_model/diffusion_model/output_blocks.10/output_blocks.10.1/transformer_blocks.0/attn2/Transpose_1_output_0: 3dddf916
/control_model/diffusion_model/output_blocks.10/output_blocks.10.1/transformer_blocks.0/attn2/Transpose_2_output_0: 3d5b2301
/control_model/diffusion_model/output_blocks.11/output_blocks.11.1/transformer_blocks.0/attn2/Transpose_1_output_0: 3dd0768d
/control_model/diffusion_model/output_blocks.11/output_blocks.11.1/transformer_blocks.0/attn2/Transpose_2_output_0: 3d40d28d
/control_model/control_model/input_blocks.1/input_blocks.1.1/transformer_blocks.0/attn2_1/Transpose_output_0: 3d9fdac1
/control_model/control_model/input_blocks.1/input_blocks.1.1/transformer_blocks.0/attn2_1/Transpose_1_output_0: 3d595232
/control_model/control_model/input_blocks.2/input_blocks.2.1/transformer_blocks.0/attn2_1/Transpose_1_output_0: 3dafda21
/control_model/control_model/input_blocks.2/input_blocks.2.1/transformer_blocks.0/attn2_1/Transpose_2_output_0: 3d2ba1c4
/control_model/control_model/input_blocks.4/input_blocks.4.1/transformer_blocks.0/attn2_1/Transpose_1_output_0: 3db83932
/control_model/control_model/input_blocks.4/input_blocks.4.1/transformer_blocks.0/attn2_1/Transpose_2_output_0: 3da51005
/control_model/control_model/input_blocks.5/input_blocks.5.1/transformer_blocks.0/attn2_1/Transpose_1_output_0: 3db49afc
/control_model/control_model/input_blocks.5/input_blocks.5.1/transformer_blocks.0/attn2_1/Transpose_2_output_0: 3dafffe8
/control_model/control_model/input_blocks.7/input_blocks.7.1/transformer_blocks.0/attn2_1/Transpose_1_output_0: 3d9738e1
/control_model/control_model/input_blocks.7/input_blocks.7.1/transformer_blocks.0/attn2_1/Transpose_2_output_0: 3d34aafe
/control_model/control_model/input_blocks.8/input_blocks.8.1/transformer_blocks.0/attn2_1/Transpose_1_output_0: 3db84eb7
/control_model/control_model/input_blocks.8/input_blocks.8.1/transformer_blocks.0/attn2_1/Transpose_2_output_0: 3d22ea4a
/control_model/control_model/middle_block.1/transformer_blocks.0/attn2_1/Transpose_1_output_0: 3d91b986
/control_model/control_model/middle_block.1/transformer_blocks.0/attn2_1/Transpose_2_output_0: 3d26c588
/control_model/diffusion_model/input_blocks.1/input_blocks.1.1/transformer_blocks.0/attn2_1/Transpose_output_0: 3d9ff99a
/control_model/diffusion_model/input_blocks.1/input_blocks.1.1/transformer_blocks.0/attn2_1/Transpose_1_output_0: 3d47da21
/control_model/diffusion_model/input_blocks.2/input_blocks.2.1/transformer_blocks.0/attn2_1/Transpose_1_output_0: 3db2941f
/control_model/diffusion_model/input_blocks.2/input_blocks.2.1/transformer_blocks.0/attn2_1/Transpose_2_output_0: 3d25a971
/control_model/diffusion_model/input_blocks.4/input_blocks.4.1/transformer_blocks.0/attn2_1/Transpose_1_output_0: 3da4e1de
/control_model/diffusion_model/input_blocks.4/input_blocks.4.1/transformer_blocks.0/attn2_1/Transpose_2_output_0: 3daa77e5
/control_model/diffusion_model/input_blocks.5/input_blocks.5.1/transformer_blocks.0/attn2_1/Transpose_1_output_0: 3db12012
/control_model/diffusion_model/input_blocks.5/input_blocks.5.1/transformer_blocks.0/attn2_1/Transpose_2_output_0: 3da760a5
/control_model/diffusion_model/input_blocks.7/input_blocks.7.1/transformer_blocks.0/attn2_1/Transpose_1_output_0: 3da582f8
/control_model/diffusion_model/input_blocks.7/input_blocks.7.1/transformer_blocks.0/attn2_1/Transpose_2_output_0: 3d22edbf
/control_model/diffusion_model/input_blocks.8/input_blocks.8.1/transformer_blocks.0/attn2_1/Transpose_1_output_0: 3dacd6e9
/control_model/diffusion_model/input_blocks.8/input_blocks.8.1/transformer_blocks.0/attn2_1/Transpose_2_output_0: 3d1d6836
/control_model/diffusion_model/middle_block.1/transformer_blocks.0/attn2_1/Transpose_1_output_0: 3d900e9b
/control_model/diffusion_model/middle_block.1/transformer_blocks.0/attn2_1/Transpose_2_output_0: 3d24ea8e
/control_model/diffusion_model/output_blocks.3/output_blocks.3.1/transformer_blocks.0/attn2_1/Transpose_1_output_0: 3da26a0e
/control_model/diffusion_model/output_blocks.3/output_blocks.3.1/transformer_blocks.0/attn2_1/Transpose_2_output_0: 3d12a125
/control_model/diffusion_model/output_blocks.4/output_blocks.4.1/transformer_blocks.0/attn2_1/Transpose_1_output_0: 3d86fd9e
/control_model/diffusion_model/output_blocks.4/output_blocks.4.1/transformer_blocks.0/attn2_1/Transpose_2_output_0: 3d2a9dbf
/control_model/diffusion_model/output_blocks.5/output_blocks.5.1/transformer_blocks.0/attn2_1/Transpose_1_output_0: 3da4628b
/control_model/diffusion_model/output_blocks.5/output_blocks.5.1/transformer_blocks.0/attn2_1/Transpose_2_output_0: 3d2efd5b
/control_model/diffusion_model/output_blocks.6/output_blocks.6.1/transformer_blocks.0/attn2_1/Transpose_1_output_0: 3dae000a
/control_model/diffusion_model/output_blocks.6/output_blocks.6.1/transformer_blocks.0/attn2_1/Transpose_2_output_0: 3d7d8f86
/control_model/diffusion_model/output_blocks.7/output_blocks.7.1/transformer_blocks.0/attn2_1/Transpose_1_output_0: 3d9ceabf
/control_model/diffusion_model/output_blocks.7/output_blocks.7.1/transformer_blocks.0/attn2_1/Transpose_2_output_0: 3d799073
/control_model/diffusion_model/output_blocks.8/output_blocks.8.1/transformer_blocks.0/attn2_1/Transpose_1_output_0: 3d8ce029
/control_model/diffusion_model/output_blocks.8/output_blocks.8.1/transformer_blocks.0/attn2_1/Transpose_2_output_0: 3d60331a
/control_model/diffusion_model/output_blocks.9/output_blocks.9.1/transformer_blocks.0/attn2_1/Transpose_1_output_0: 3dbfc300
/control_model/diffusion_model/output_blocks.9/output_blocks.9.1/transformer_blocks.0/attn2_1/Transpose_2_output_0: 3d1642dd
/control_model/diffusion_model/output_blocks.10/output_blocks.10.1/transformer_blocks.0/attn2_1/Transpose_1_output_0: 3dc1b1b2
/control_model/diffusion_model/output_blocks.10/output_blocks.10.1/transformer_blocks.0/attn2_1/Transpose_2_output_0: 3d54a7de
/control_model/diffusion_model/output_blocks.11/output_blocks.11.1/transformer_blocks.0/attn2_1/Transpose_1_output_0: 3dd08ff9
/control_model/diffusion_model/output_blocks.11/output_blocks.11.1/transformer_blocks.0/attn2_1/Transpose_2_output_0: 3d4a6552
(Unnamed Layer* 506) [Shuffle]_output: 3cf66597
(Unnamed Layer* 507) [PluginV2DynamicExt]_output: 3d558801
/control_model/control_model/input_blocks.1/input_blocks.1.0/in_layers/in_layers.0/InstanceNormalization_output_0: 3d558801
/control_model/control_model/input_blocks.1/input_blocks.1.1/transformer_blocks.0/attn2/Reshape_3_output_0: 3da3b226
/control_model/control_model/input_blocks.1/input_blocks.1.1/transformer_blocks.0/attn2/Reshape_5_output_0: 3d20e636
/control_model/control_model/input_blocks.2/input_blocks.2.1/transformer_blocks.0/attn2/Reshape_3_output_0: 3db9796f
/control_model/control_model/input_blocks.2/input_blocks.2.1/transformer_blocks.0/attn2/Reshape_5_output_0: 3d236922
/control_model/control_model/input_blocks.4/input_blocks.4.1/transformer_blocks.0/attn2/Reshape_3_output_0: 3dad286d
/control_model/control_model/input_blocks.4/input_blocks.4.1/transformer_blocks.0/attn2/Reshape_5_output_0: 3d9d3ae0
/control_model/control_model/input_blocks.5/input_blocks.5.1/transformer_blocks.0/attn2/Reshape_3_output_0: 3db49afc
/control_model/control_model/input_blocks.5/input_blocks.5.1/transformer_blocks.0/attn2/Reshape_5_output_0: 3da82451
/control_model/control_model/input_blocks.7/input_blocks.7.1/transformer_blocks.0/attn2/Reshape_3_output_0: 3d97a3e8
/control_model/control_model/input_blocks.7/input_blocks.7.1/transformer_blocks.0/attn2/Reshape_5_output_0: 3d31de8f
/control_model/control_model/input_blocks.8/input_blocks.8.1/transformer_blocks.0/attn2/Reshape_3_output_0: 3db84eb7
/control_model/control_model/input_blocks.8/input_blocks.8.1/transformer_blocks.0/attn2/Reshape_5_output_0: 3d1fed09
/control_model/control_model/middle_block.1/transformer_blocks.0/attn2/Reshape_3_output_0: 3da15128
/control_model/control_model/middle_block.1/transformer_blocks.0/attn2/Reshape_5_output_0: 3d24f60d
/control_model/diffusion_model/input_blocks.1/input_blocks.1.0/in_layers/in_layers.0/Reshape_1_output_0: 3d557388
/control_model/diffusion_model/input_blocks.1/input_blocks.1.1/transformer_blocks.0/attn2/Reshape_3_output_0: 3d9ff99a
/control_model/diffusion_model/input_blocks.1/input_blocks.1.1/transformer_blocks.0/attn2/Reshape_5_output_0: 3d1b1ee9
/control_model/diffusion_model/input_blocks.2/input_blocks.2.1/transformer_blocks.0/attn2/Reshape_3_output_0: 3db2941f
/control_model/diffusion_model/input_blocks.2/input_blocks.2.1/transformer_blocks.0/attn2/Reshape_5_output_0: 3d2224e6
/control_model/diffusion_model/input_blocks.4/input_blocks.4.1/transformer_blocks.0/attn2/Reshape_3_output_0: 3d9f5948
/control_model/diffusion_model/input_blocks.4/input_blocks.4.1/transformer_blocks.0/attn2/Reshape_5_output_0: 3d9edd44
/control_model/diffusion_model/input_blocks.5/input_blocks.5.1/transformer_blocks.0/attn2/Reshape_3_output_0: 3da7870f
/control_model/diffusion_model/input_blocks.5/input_blocks.5.1/transformer_blocks.0/attn2/Reshape_5_output_0: 3da2d21d
/control_model/diffusion_model/input_blocks.7/input_blocks.7.1/transformer_blocks.0/attn2/Reshape_3_output_0: 3da1120f
/control_model/diffusion_model/input_blocks.7/input_blocks.7.1/transformer_blocks.0/attn2/Reshape_5_output_0: 3d2083d4
/control_model/diffusion_model/input_blocks.8/input_blocks.8.1/transformer_blocks.0/attn2/Reshape_3_output_0: 3db07075
/control_model/diffusion_model/input_blocks.8/input_blocks.8.1/transformer_blocks.0/attn2/Reshape_5_output_0: 3d1d6836
/control_model/diffusion_model/middle_block.1/transformer_blocks.0/attn2/Reshape_3_output_0: 3d900e9b
/control_model/diffusion_model/middle_block.1/transformer_blocks.0/attn2/Reshape_5_output_0: 3d255769
/control_model/diffusion_model/output_blocks.3/output_blocks.3.1/transformer_blocks.0/attn2/Reshape_3_output_0: 3da26a0e
/control_model/diffusion_model/output_blocks.3/output_blocks.3.1/transformer_blocks.0/attn2/Reshape_5_output_0: 3d134961
/control_model/diffusion_model/output_blocks.4/output_blocks.4.1/transformer_blocks.0/attn2/Reshape_3_output_0: 3d86fd9e
/control_model/diffusion_model/output_blocks.4/output_blocks.4.1/transformer_blocks.0/attn2/Reshape_5_output_0: 3d33ba24
/control_model/diffusion_model/output_blocks.5/output_blocks.5.1/transformer_blocks.0/attn2/Reshape_3_output_0: 3da4628b
/control_model/diffusion_model/output_blocks.5/output_blocks.5.1/transformer_blocks.0/attn2/Reshape_5_output_0: 3d2efd5b
/control_model/diffusion_model/output_blocks.6/output_blocks.6.1/transformer_blocks.0/attn2/Reshape_3_output_0: 3dae000a
/control_model/diffusion_model/output_blocks.6/output_blocks.6.1/transformer_blocks.0/attn2/Reshape_5_output_0: 3d7b94a6
/control_model/diffusion_model/output_blocks.7/output_blocks.7.1/transformer_blocks.0/attn2/Reshape_3_output_0: 3d9ceabf
/control_model/diffusion_model/output_blocks.7/output_blocks.7.1/transformer_blocks.0/attn2/Reshape_5_output_0: 3d6c02b5
/control_model/diffusion_model/output_blocks.8/output_blocks.8.1/transformer_blocks.0/attn2/Reshape_3_output_0: 3d8f9215
/control_model/diffusion_model/output_blocks.8/output_blocks.8.1/transformer_blocks.0/attn2/Reshape_5_output_0: 3d59d35c
/control_model/diffusion_model/output_blocks.9/output_blocks.9.1/transformer_blocks.0/attn2/Reshape_3_output_0: 3dbb381c
/control_model/diffusion_model/output_blocks.9/output_blocks.9.1/transformer_blocks.0/attn2/Reshape_5_output_0: 3d179890
/control_model/diffusion_model/output_blocks.10/output_blocks.10.1/transformer_blocks.0/attn2/Reshape_3_output_0: 3dddf916
/control_model/diffusion_model/output_blocks.10/output_blocks.10.1/transformer_blocks.0/attn2/Reshape_5_output_0: 3d5b2301
/control_model/diffusion_model/Add_12_output_0: 3ca0eeb4
/control_model/diffusion_model/output_blocks.11/output_blocks.11.1/transformer_blocks.0/attn2/Reshape_3_output_0: 3dd0768d
/control_model/diffusion_model/output_blocks.11/output_blocks.11.1/transformer_blocks.0/attn2/Reshape_5_output_0: 3d40d28d
/control_model/control_model/input_blocks.1/input_blocks.1.1/transformer_blocks.0/attn2_1/Reshape_2_output_0: 3d9fdac1
/control_model/control_model/input_blocks.1/input_blocks.1.1/transformer_blocks.0/attn2_1/Reshape_4_output_0: 3d595232
/control_model/control_model/input_blocks.2/input_blocks.2.1/transformer_blocks.0/attn2_1/Reshape_3_output_0: 3dafda21
/control_model/control_model/input_blocks.2/input_blocks.2.1/transformer_blocks.0/attn2_1/Reshape_5_output_0: 3d2ba1c4
/control_model/control_model/input_blocks.4/input_blocks.4.1/transformer_blocks.0/attn2_1/Reshape_3_output_0: 3db83932
/control_model/control_model/input_blocks.4/input_blocks.4.1/transformer_blocks.0/attn2_1/Reshape_5_output_0: 3da51005
/control_model/control_model/input_blocks.5/input_blocks.5.1/transformer_blocks.0/attn2_1/Reshape_3_output_0: 3db49afc
/control_model/control_model/input_blocks.5/input_blocks.5.1/transformer_blocks.0/attn2_1/Reshape_5_output_0: 3dafffe8
/control_model/control_model/input_blocks.7/input_blocks.7.1/transformer_blocks.0/attn2_1/Reshape_3_output_0: 3d9738e1
/control_model/control_model/input_blocks.7/input_blocks.7.1/transformer_blocks.0/attn2_1/Reshape_5_output_0: 3d34aafe
/control_model/control_model/input_blocks.8/input_blocks.8.1/transformer_blocks.0/attn2_1/Reshape_3_output_0: 3db84eb7
/control_model/control_model/input_blocks.8/input_blocks.8.1/transformer_blocks.0/attn2_1/Reshape_5_output_0: 3d22ea4a
/control_model/control_model/middle_block.1/transformer_blocks.0/attn2_1/Reshape_3_output_0: 3d91b986
/control_model/control_model/middle_block.1/transformer_blocks.0/attn2_1/Reshape_5_output_0: 3d26c588
/control_model/diffusion_model/input_blocks.1/input_blocks.1.1/transformer_blocks.0/attn2_1/Reshape_2_output_0: 3d9ff99a
/control_model/diffusion_model/input_blocks.1/input_blocks.1.1/transformer_blocks.0/attn2_1/Reshape_4_output_0: 3d47da21
/control_model/diffusion_model/input_blocks.2/input_blocks.2.1/transformer_blocks.0/attn2_1/Reshape_3_output_0: 3db2941f
/control_model/diffusion_model/input_blocks.2/input_blocks.2.1/transformer_blocks.0/attn2_1/Reshape_5_output_0: 3d25a971
/control_model/diffusion_model/input_blocks.4/input_blocks.4.1/transformer_blocks.0/attn2_1/Reshape_3_output_0: 3da4e1de
/control_model/diffusion_model/input_blocks.4/input_blocks.4.1/transformer_blocks.0/attn2_1/Reshape_5_output_0: 3daa77e5
/control_model/diffusion_model/input_blocks.5/input_blocks.5.1/transformer_blocks.0/attn2_1/Reshape_3_output_0: 3db12012
/control_model/diffusion_model/input_blocks.5/input_blocks.5.1/transformer_blocks.0/attn2_1/Reshape_5_output_0: 3da760a5
/control_model/diffusion_model/input_blocks.7/input_blocks.7.1/transformer_blocks.0/attn2_1/Reshape_3_output_0: 3da582f8
/control_model/diffusion_model/input_blocks.7/input_blocks.7.1/transformer_blocks.0/attn2_1/Reshape_5_output_0: 3d22edbf
/control_model/diffusion_model/input_blocks.8/input_blocks.8.1/transformer_blocks.0/attn2_1/Reshape_3_output_0: 3dacd6e9
/control_model/diffusion_model/input_blocks.8/input_blocks.8.1/transformer_blocks.0/attn2_1/Reshape_5_output_0: 3d1d6836
/control_model/diffusion_model/middle_block.1/transformer_blocks.0/attn2_1/Reshape_3_output_0: 3d900e9b
/control_model/diffusion_model/middle_block.1/transformer_blocks.0/attn2_1/Reshape_5_output_0: 3d24ea8e
/control_model/diffusion_model/output_blocks.3/output_blocks.3.1/transformer_blocks.0/attn2_1/Reshape_3_output_0: 3da26a0e
/control_model/diffusion_model/output_blocks.3/output_blocks.3.1/transformer_blocks.0/attn2_1/Reshape_5_output_0: 3d12a125
/control_model/diffusion_model/output_blocks.4/output_blocks.4.1/transformer_blocks.0/attn2_1/Reshape_3_output_0: 3d86fd9e
/control_model/diffusion_model/output_blocks.4/output_blocks.4.1/transformer_blocks.0/attn2_1/Reshape_5_output_0: 3d2a9dbf
/control_model/diffusion_model/output_blocks.5/output_blocks.5.1/transformer_blocks.0/attn2_1/Reshape_3_output_0: 3da4628b
/control_model/diffusion_model/output_blocks.5/output_blocks.5.1/transformer_blocks.0/attn2_1/Reshape_5_output_0: 3d2efd5b
/control_model/diffusion_model/output_blocks.6/output_blocks.6.1/transformer_blocks.0/attn2_1/Reshape_3_output_0: 3dae000a
/control_model/diffusion_model/output_blocks.6/output_blocks.6.1/transformer_blocks.0/attn2_1/Reshape_5_output_0: 3d7d8f86
/control_model/diffusion_model/output_blocks.7/output_blocks.7.1/transformer_blocks.0/attn2_1/Reshape_3_output_0: 3d9ceabf
/control_model/diffusion_model/output_blocks.7/output_blocks.7.1/transformer_blocks.0/attn2_1/Reshape_5_output_0: 3d799073
/control_model/diffusion_model/output_blocks.8/output_blocks.8.1/transformer_blocks.0/attn2_1/Reshape_3_output_0: 3d8ce029
/control_model/diffusion_model/output_blocks.8/output_blocks.8.1/transformer_blocks.0/attn2_1/Reshape_5_output_0: 3d60331a
/control_model/diffusion_model/output_blocks.9/output_blocks.9.1/transformer_blocks.0/attn2_1/Reshape_3_output_0: 3dbfc300
/control_model/diffusion_model/output_blocks.9/output_blocks.9.1/transformer_blocks.0/attn2_1/Reshape_5_output_0: 3d1642dd
/control_model/diffusion_model/output_blocks.10/output_blocks.10.1/transformer_blocks.0/attn2_1/Reshape_3_output_0: 3dc1b1b2
/control_model/diffusion_model/output_blocks.10/output_blocks.10.1/transformer_blocks.0/attn2_1/Reshape_5_output_0: 3d54a7de
/control_model/diffusion_model/output_blocks.11/output_blocks.11.1/transformer_blocks.0/attn2_1/Reshape_3_output_0: 3dd08ff9
/control_model/diffusion_model/output_blocks.11/output_blocks.11.1/transformer_blocks.0/attn2_1/Reshape_5_output_0: 3d4a6552
/control_model/control_model/input_blocks.1/input_blocks.1.0/in_layers/in_layers.0/Reshape_1_output_0: 3d558801
(Unnamed Layer* 604) [Constant]_output: 3bc660ba
(Unnamed Layer* 605) [Shuffle]_output: 3bc660ba
/control_model/diffusion_model/input_blocks.1/input_blocks.1.0/in_layers/in_layers.0/Mul_output_0: 3ce09b11
(Unnamed Layer* 607) [Constant]_output: 3bbc6596
(Unnamed Layer* 608) [Shuffle]_output: 3bbc6596
/control_model/control_model/input_blocks.1/input_blocks.1.0/in_layers/in_layers.0/Mul_output_0: 3ce02f6a
(Unnamed Layer* 610) [Constant]_output: 3ac7c337
(Unnamed Layer* 611) [Shuffle]_output: 3ac7c337
/control_model/diffusion_model/input_blocks.1/input_blocks.1.0/in_layers/in_layers.0/Add_output_0: 3ce6e79d
(Unnamed Layer* 613) [Constant]_output: 3ac31345
(Unnamed Layer* 614) [Shuffle]_output: 3ac31345
/control_model/control_model/input_blocks.1/input_blocks.1.0/in_layers/in_layers.0/Add_output_0: 3ce4a8ec
/control_model/diffusion_model/input_blocks.1/input_blocks.1.0/in_layers/in_layers.1/Sigmoid_output_0: 3bfd3287
/control_model/control_model/input_blocks.1/input_blocks.1.0/in_layers/in_layers.1/Sigmoid_output_0: 3bf80f00
/control_model/diffusion_model/input_blocks.1/input_blocks.1.0/in_layers/in_layers.1/Mul_output_0: 3c99c194
/control_model/control_model/input_blocks.1/input_blocks.1.0/in_layers/in_layers.1/Mul_output_0: 3c9a5db7
/control_model/diffusion_model/input_blocks.1/input_blocks.1.0/in_layers/in_layers.2/Conv_output_0: 3d862811
/control_model/control_model/input_blocks.1/input_blocks.1.0/in_layers/in_layers.2/Conv_output_0: 3d6611f5
/control_model/diffusion_model/input_blocks.1/input_blocks.1.0/Add_output_0: 3e02bf7a
/control_model/control_model/input_blocks.1/input_blocks.1.0/Add_output_0: 3dba05e5
/control_model/diffusion_model/input_blocks.1/input_blocks.1.0/out_layers/out_layers.0/Reshape_output_0: 3e02bf7a
/control_model/control_model/input_blocks.1/input_blocks.1.0/out_layers/out_layers.0/Reshape_output_0: 3dba05e5
(Unnamed Layer* 626) [Shuffle]_output: 3e02bf7a
(Unnamed Layer* 627) [PluginV2DynamicExt]_output: 3d84cc14
/control_model/diffusion_model/input_blocks.1/input_blocks.1.0/out_layers/out_layers.0/InstanceNormalization_output_0: 3d84cc14
(Unnamed Layer* 629) [Shuffle]_output: 3dba05e5
(Unnamed Layer* 630) [PluginV2DynamicExt]_output: 3d709d9f
/control_model/control_model/input_blocks.1/input_blocks.1.0/out_layers/out_layers.0/InstanceNormalization_output_0: 3d709d9f
/control_model/diffusion_model/input_blocks.1/input_blocks.1.0/out_layers/out_layers.0/Reshape_1_output_0: 3d84cc14
/control_model/control_model/input_blocks.1/input_blocks.1.0/out_layers/out_layers.0/Reshape_1_output_0: 3d709d9f
(Unnamed Layer* 634) [Constant]_output: 3c419a23
(Unnamed Layer* 635) [Shuffle]_output: 3c419a23
/control_model/diffusion_model/input_blocks.1/input_blocks.1.0/out_layers/out_layers.0/Mul_output_0: 3d25bcc8
(Unnamed Layer* 637) [Constant]_output: 3c40abcc
(Unnamed Layer* 638) [Shuffle]_output: 3c40abcc
/control_model/control_model/input_blocks.1/input_blocks.1.0/out_layers/out_layers.0/Mul_output_0: 3d246b9d
(Unnamed Layer* 640) [Constant]_output: 3b0ff479
(Unnamed Layer* 641) [Shuffle]_output: 3b0ff479
/control_model/diffusion_model/input_blocks.1/input_blocks.1.0/out_layers/out_layers.0/Add_output_0: 3d1aa77f
(Unnamed Layer* 643) [Constant]_output: 3af24507
(Unnamed Layer* 644) [Shuffle]_output: 3af24507
/control_model/control_model/input_blocks.1/input_blocks.1.0/out_layers/out_layers.0/Add_output_0: 3d1ac115
/control_model/diffusion_model/input_blocks.1/input_blocks.1.0/out_layers/out_layers.1/Sigmoid_output_0: 3bdd971b
/control_model/control_model/input_blocks.1/input_blocks.1.0/out_layers/out_layers.1/Sigmoid_output_0: 3bf6621f
/control_model/diffusion_model/input_blocks.1/input_blocks.1.0/out_layers/out_layers.1/Mul_output_0: 3be649b0
/control_model/control_model/input_blocks.1/input_blocks.1.0/out_layers/out_layers.1/Mul_output_0: 3c253e7e
/control_model/diffusion_model/input_blocks.1/input_blocks.1.0/out_layers/out_layers.3/Conv_output_0: 3d23113a
/control_model/control_model/input_blocks.1/input_blocks.1.0/out_layers/out_layers.3/Conv_output_0: 3d0ce9a2
/control_model/diffusion_model/input_blocks.1/input_blocks.1.0/Add_1_output_0: 3d37dc49
/control_model/control_model/input_blocks.1/input_blocks.1.0/Add_1_output_0: 3d2b88f6
/control_model/diffusion_model/input_blocks.1/input_blocks.1.1/norm/Reshape_output_0: 3d37dc49
/control_model/control_model/input_blocks.1/input_blocks.1.1/norm/Reshape_output_0: 3d2b88f6
(Unnamed Layer* 656) [Shuffle]_output: 3d37dc49
(Unnamed Layer* 657) [PluginV2DynamicExt]_output: 3d68a53a
/control_model/diffusion_model/input_blocks.1/input_blocks.1.1/norm/InstanceNormalization_output_0: 3d68a53a
(Unnamed Layer* 659) [Shuffle]_output: 3d2b88f6
(Unnamed Layer* 660) [PluginV2DynamicExt]_output: 3d639b13
/control_model/control_model/input_blocks.1/input_blocks.1.1/norm/InstanceNormalization_output_0: 3d639b13
/control_model/diffusion_model/input_blocks.1/input_blocks.1.1/norm/Reshape_1_output_0: 3d68a53a
/control_model/control_model/input_blocks.1/input_blocks.1.1/norm/Reshape_1_output_0: 3d639b13
(Unnamed Layer* 664) [Constant]_output: 3b8888e4
(Unnamed Layer* 665) [Shuffle]_output: 3b8888e4
/control_model/diffusion_model/input_blocks.1/input_blocks.1.1/norm/Mul_output_0: 3c38647a
(Unnamed Layer* 667) [Constant]_output: 3b88cd11
(Unnamed Layer* 668) [Shuffle]_output: 3b88cd11
/control_model/control_model/input_blocks.1/input_blocks.1.1/norm/Mul_output_0: 3c4c1e84
(Unnamed Layer* 670) [Constant]_output: 3b19f9cc
(Unnamed Layer* 671) [Shuffle]_output: 3b19f9cc
/control_model/diffusion_model/input_blocks.1/input_blocks.1.1/norm/Add_output_0: 3c34cbd8
(Unnamed Layer* 673) [Constant]_output: 3b068225
(Unnamed Layer* 674) [Shuffle]_output: 3b068225
/control_model/control_model/input_blocks.1/input_blocks.1.1/norm/Add_output_0: 3c517d88
/control_model/diffusion_model/input_blocks.1/input_blocks.1.1/proj_in/Conv_output_0: 3c47d5b4
/control_model/control_model/input_blocks.1/input_blocks.1.1/proj_in/Conv_output_0: 3c69315b
/control_model/diffusion_model/input_blocks.1/input_blocks.1.1/Transpose_output_0: 3c47d5b4
/control_model/control_model/input_blocks.1/input_blocks.1.1/Transpose_output_0: 3c69315b
/control_model/diffusion_model/input_blocks.1/input_blocks.1.1/Reshape_1_output_0: 3c47d5b4
/control_model/control_model/input_blocks.1/input_blocks.1.1/Reshape_1_output_0: 3c69315b
/control_model/diffusion_model/input_blocks.1/input_blocks.1.1/transformer_blocks.0/norm1/LayerNormalization_output_0: 3cc666f4
/control_model/control_model/input_blocks.1/input_blocks.1.1/transformer_blocks.0/norm1/LayerNormalization_output_0: 3cb3a737
(Unnamed Layer* 694) [Constant]_output: 3b54c586
(Unnamed Layer* 695) [Shuffle]_output: 3b54c586
/control_model/diffusion_model/input_blocks.1/input_blocks.1.1/transformer_blocks.0/attn1/to_q/MatMul_output_0: 3d665539
(Unnamed Layer* 697) [Constant]_output: 3b41a296
(Unnamed Layer* 698) [Shuffle]_output: 3b41a296
/control_model/diffusion_model/input_blocks.1/input_blocks.1.1/transformer_blocks.0/attn1/to_k/MatMul_output_0: 3d4e0d12
(Unnamed Layer* 700) [Constant]_output: 3b014672
(Unnamed Layer* 701) [Shuffle]_output: 3b014672
/control_model/diffusion_model/input_blocks.1/input_blocks.1.1/transformer_blocks.0/attn1/to_v/MatMul_output_0: 3d013852
(Unnamed Layer* 703) [Constant]_output: 3b6bd1d4
(Unnamed Layer* 704) [Shuffle]_output: 3b6bd1d4
/control_model/control_model/input_blocks.1/input_blocks.1.1/transformer_blocks.0/attn1/to_q/MatMul_output_0: 3d492d57
(Unnamed Layer* 706) [Constant]_output: 3b41e022
(Unnamed Layer* 707) [Shuffle]_output: 3b41e022
/control_model/control_model/input_blocks.1/input_blocks.1.1/transformer_blocks.0/attn1/to_k/MatMul_output_0: 3d3f3aea
(Unnamed Layer* 709) [Constant]_output: 3b000996
(Unnamed Layer* 710) [Shuffle]_output: 3b000996
/control_model/control_model/input_blocks.1/input_blocks.1.1/transformer_blocks.0/attn1/to_v/MatMul_output_0: 3cb9ad47
/control_model/diffusion_model/input_blocks.1/input_blocks.1.1/transformer_blocks.0/attn1/Reshape_output_0: 3d665539
/control_model/diffusion_model/input_blocks.1/input_blocks.1.1/transformer_blocks.0/attn1/Reshape_2_output_0: 3d4e0d12
/control_model/diffusion_model/input_blocks.1/input_blocks.1.1/transformer_blocks.0/attn1/Reshape_4_output_0: 3d013852
/control_model/control_model/input_blocks.1/input_blocks.1.1/transformer_blocks.0/attn1/Reshape_output_0: 3d492d57
/control_model/control_model/input_blocks.1/input_blocks.1.1/transformer_blocks.0/attn1/Reshape_2_output_0: 3d3f3aea
/control_model/control_model/input_blocks.1/input_blocks.1.1/transformer_blocks.0/attn1/Reshape_4_output_0: 3cb9ad47
/control_model/diffusion_model/input_blocks.1/input_blocks.1.1/transformer_blocks.0/attn1/Transpose_output_0: 3d665539
/control_model/diffusion_model/input_blocks.1/input_blocks.1.1/transformer_blocks.0/attn1/Transpose_1_output_0: 3d4e0d12
/control_model/diffusion_model/input_blocks.1/input_blocks.1.1/transformer_blocks.0/attn1/Transpose_2_output_0: 3d013852
/control_model/control_model/input_blocks.1/input_blocks.1.1/transformer_blocks.0/attn1/Transpose_output_0: 3d492d57
/control_model/control_model/input_blocks.1/input_blocks.1.1/transformer_blocks.0/attn1/Transpose_1_output_0: 3d3f3aea
/control_model/control_model/input_blocks.1/input_blocks.1.1/transformer_blocks.0/attn1/Transpose_2_output_0: 3cb9ad47
/control_model/diffusion_model/input_blocks.1/input_blocks.1.1/transformer_blocks.0/attn1/Reshape_1_output_0: 3d665539
/control_model/diffusion_model/input_blocks.1/input_blocks.1.1/transformer_blocks.0/attn1/Reshape_3_output_0: 3d4e0d12
/control_model/diffusion_model/input_blocks.1/input_blocks.1.1/transformer_blocks.0/attn1/Reshape_5_output_0: 3d013852
/control_model/control_model/input_blocks.1/input_blocks.1.1/transformer_blocks.0/attn1/Reshape_1_output_0: 3d492d57
/control_model/control_model/input_blocks.1/input_blocks.1.1/transformer_blocks.0/attn1/Reshape_3_output_0: 3d3f3aea
/control_model/control_model/input_blocks.1/input_blocks.1.1/transformer_blocks.0/attn1/Reshape_5_output_0: 3cb9ad47
/control_model/diffusion_model/input_blocks.1/input_blocks.1.1/transformer_blocks.0/attn1/Einsum_output_0: 3f61413e
/control_model/control_model/input_blocks.1/input_blocks.1.1/transformer_blocks.0/attn1/Einsum_output_0: 3f550530
(Unnamed Layer* 733) [Shuffle]_output: 3aa3392c
/control_model/diffusion_model/input_blocks.1/input_blocks.1.1/transformer_blocks.0/attn1/Mul_output_0: 3e0e76b3
(Unnamed Layer* 736) [Shuffle]_output: 3aa3392c
/control_model/control_model/input_blocks.1/input_blocks.1.1/transformer_blocks.0/attn1/Mul_output_0: 3e06b9d1
(Unnamed Layer* 738) [Softmax]_output: 3a7f4bbb
(Unnamed Layer* 740) [Softmax]_output: 3a17cc5a
/control_model/diffusion_model/input_blocks.1/input_blocks.1.1/transformer_blocks.0/attn1/Einsum_1_output_0: 3c5a3bff
/control_model/control_model/input_blocks.1/input_blocks.1.1/transformer_blocks.0/attn1/Einsum_1_output_0: 3c411709
/control_model/diffusion_model/input_blocks.1/input_blocks.1.1/transformer_blocks.0/attn1/Reshape_6_output_0: 3c5a3bff
/control_model/control_model/input_blocks.1/input_blocks.1.1/transformer_blocks.0/attn1/Reshape_6_output_0: 3c411709
/control_model/diffusion_model/input_blocks.1/input_blocks.1.1/transformer_blocks.0/attn1/Transpose_3_output_0: 3c5a3bff
/control_model/control_model/input_blocks.1/input_blocks.1.1/transformer_blocks.0/attn1/Transpose_3_output_0: 3c411709
/control_model/diffusion_model/input_blocks.1/input_blocks.1.1/transformer_blocks.0/attn1/Reshape_7_output_0: 3c5a3bff
/control_model/control_model/input_blocks.1/input_blocks.1.1/transformer_blocks.0/attn1/Reshape_7_output_0: 3c411709
(Unnamed Layer* 750) [Constant]_output: 3add917d
(Unnamed Layer* 751) [Shuffle]_output: 3add917d
/control_model/diffusion_model/input_blocks.1/input_blocks.1.1/transformer_blocks.0/attn1/to_out/to_out.0/MatMul_output_0: 3c60ca67
(Unnamed Layer* 753) [Constant]_output: 3adf14b3
(Unnamed Layer* 754) [Shuffle]_output: 3adf14b3
/control_model/control_model/input_blocks.1/input_blocks.1.1/transformer_blocks.0/attn1/to_out/to_out.0/MatMul_output_0: 3c0bd8dd
(Unnamed Layer* 756) [Constant]_output: 3aaabd62
(Unnamed Layer* 757) [Shuffle]_output: 3aaabd62
/control_model/diffusion_model/input_blocks.1/input_blocks.1.1/transformer_blocks.0/attn1/to_out/to_out.0/Add_output_0: 3c787f4a
(Unnamed Layer* 759) [Constant]_output: 3b0fdf1b
(Unnamed Layer* 760) [Shuffle]_output: 3b0fdf1b
/control_model/control_model/input_blocks.1/input_blocks.1.1/transformer_blocks.0/attn1/to_out/to_out.0/Add_output_0: 3c1ad7d9
/control_model/diffusion_model/input_blocks.1/input_blocks.1.1/transformer_blocks.0/Add_output_0: 3cacd1ae
/control_model/control_model/input_blocks.1/input_blocks.1.1/transformer_blocks.0/Add_output_0: 3c7411aa
/control_model/diffusion_model/input_blocks.1/input_blocks.1.1/transformer_blocks.0/norm2/LayerNormalization_output_0: 3cce9b08
/control_model/control_model/input_blocks.1/input_blocks.1.1/transformer_blocks.0/norm2/LayerNormalization_output_0: 3c867652
(Unnamed Layer* 774) [Constant]_output: 3b24d483
(Unnamed Layer* 775) [Shuffle]_output: 3b24d483
/control_model/diffusion_model/input_blocks.1/input_blocks.1.1/transformer_blocks.0/attn2/to_q/MatMul_output_0: 3cacc5ba
(Unnamed Layer* 777) [Constant]_output: 3b2032ba
(Unnamed Layer* 778) [Shuffle]_output: 3b2032ba
/control_model/control_model/input_blocks.1/input_blocks.1.1/transformer_blocks.0/attn2/to_q/MatMul_output_0: 3cba3d7b
/control_model/diffusion_model/input_blocks.1/input_blocks.1.1/transformer_blocks.0/attn2/Reshape_output_0: 3cacc5ba
/control_model/control_model/input_blocks.1/input_blocks.1.1/transformer_blocks.0/attn2/Reshape_output_0: 3cba3d7b
/control_model/diffusion_model/input_blocks.1/input_blocks.1.1/transformer_blocks.0/attn2/Transpose_output_0: 3cacc5ba
/control_model/control_model/input_blocks.1/input_blocks.1.1/transformer_blocks.0/attn2/Transpose_output_0: 3cba3d7b
/control_model/diffusion_model/input_blocks.1/input_blocks.1.1/transformer_blocks.0/attn2/Reshape_1_output_0: 3cacc5ba
/control_model/diffusion_model/input_blocks.1/input_blocks.1.1/transformer_blocks.0/attn2_1/Reshape_output_0: 3cacc5ba
/control_model/control_model/input_blocks.1/input_blocks.1.1/transformer_blocks.0/attn2/Reshape_1_output_0: 3cba3d7b
/control_model/diffusion_model/input_blocks.1/input_blocks.1.1/transformer_blocks.0/attn2/Einsum_output_0: 3f1c8332
/control_model/control_model/input_blocks.1/input_blocks.1.1/transformer_blocks.0/attn2_1/Reshape_output_0: 3cba3d7b
/control_model/diffusion_model/input_blocks.1/input_blocks.1.1/transformer_blocks.0/attn2_1/Einsum_output_0: 3f1b23e7
/control_model/control_model/input_blocks.1/input_blocks.1.1/transformer_blocks.0/attn2/Einsum_output_0: 3f2e3613
(Unnamed Layer* 792) [Shuffle]_output: 3aa3392c
/control_model/diffusion_model/input_blocks.1/input_blocks.1.1/transformer_blocks.0/attn2/Mul_2_output_0: 3dc5f971
/control_model/control_model/input_blocks.1/input_blocks.1.1/transformer_blocks.0/attn2_1/Einsum_output_0: 3f2e0a33
(Unnamed Layer* 796) [Shuffle]_output: 3aa3392c
/control_model/diffusion_model/input_blocks.1/input_blocks.1.1/transformer_blocks.0/attn2_1/Mul_2_output_0: 3dc43d15
(Unnamed Layer* 799) [Shuffle]_output: 3aa3392c
/control_model/control_model/input_blocks.1/input_blocks.1.1/transformer_blocks.0/attn2/Mul_2_output_0: 3ddc5c98
(Unnamed Layer* 801) [Softmax]_output: 3a828261
(Unnamed Layer* 804) [Shuffle]_output: 3aa3392c
/control_model/control_model/input_blocks.1/input_blocks.1.1/transformer_blocks.0/attn2_1/Mul_2_output_0: 3ddc2519
(Unnamed Layer* 806) [Softmax]_output: 3a81805b
(Unnamed Layer* 808) [Softmax]_output: 3c0111db
/control_model/diffusion_model/input_blocks.1/input_blocks.1.1/transformer_blocks.0/attn2/Einsum_1_output_0: 3c87f8e7
(Unnamed Layer* 811) [Softmax]_output: 3c0111e5
/control_model/diffusion_model/input_blocks.1/input_blocks.1.1/transformer_blocks.0/attn2_1/Einsum_1_output_0: 3c87c79a
/control_model/control_model/input_blocks.1/input_blocks.1.1/transformer_blocks.0/attn2/Einsum_1_output_0: 3be4b581
/control_model/diffusion_model/input_blocks.1/input_blocks.1.1/transformer_blocks.0/attn2/Reshape_6_output_0: 3c87f8e7
/control_model/control_model/input_blocks.1/input_blocks.1.1/transformer_blocks.0/attn2_1/Einsum_1_output_0: 3be5321d
/control_model/diffusion_model/input_blocks.1/input_blocks.1.1/transformer_blocks.0/attn2_1/Reshape_5_output_0: 3c87c79a
/control_model/control_model/input_blocks.1/input_blocks.1.1/transformer_blocks.0/attn2/Reshape_6_output_0: 3be4b581
/control_model/diffusion_model/input_blocks.1/input_blocks.1.1/transformer_blocks.0/attn2/Transpose_3_output_0: 3c87f8e7
/control_model/control_model/input_blocks.1/input_blocks.1.1/transformer_blocks.0/attn2_1/Reshape_5_output_0: 3be5321d
/control_model/diffusion_model/input_blocks.1/input_blocks.1.1/transformer_blocks.0/attn2_1/Transpose_2_output_0: 3c87c79a
/control_model/control_model/input_blocks.1/input_blocks.1.1/transformer_blocks.0/attn2/Transpose_3_output_0: 3be4b581
/control_model/diffusion_model/input_blocks.1/input_blocks.1.1/transformer_blocks.0/attn2/Reshape_7_output_0: 3c87f8e7
/control_model/control_model/input_blocks.1/input_blocks.1.1/transformer_blocks.0/attn2_1/Transpose_2_output_0: 3be5321d
/control_model/diffusion_model/input_blocks.1/input_blocks.1.1/transformer_blocks.0/attn2_1/Reshape_6_output_0: 3c87c79a
/control_model/control_model/input_blocks.1/input_blocks.1.1/transformer_blocks.0/attn2/Reshape_7_output_0: 3be4b581
(Unnamed Layer* 827) [Constant]_output: 3a2c48f2
(Unnamed Layer* 828) [Shuffle]_output: 3a2c48f2
/control_model/diffusion_model/input_blocks.1/input_blocks.1.1/transformer_blocks.0/attn2/to_out/to_out.0/MatMul_output_0: 3b62a14c
/control_model/control_model/input_blocks.1/input_blocks.1.1/transformer_blocks.0/attn2_1/Reshape_6_output_0: 3be5321d
(Unnamed Layer* 831) [Constant]_output: 3a2c48f2
(Unnamed Layer* 832) [Shuffle]_output: 3a2c48f2
/control_model/diffusion_model/input_blocks.1/input_blocks.1.1/transformer_blocks.0/attn2/to_out/to_out.0_1/MatMul_output_0: 3b5d33f4
(Unnamed Layer* 834) [Constant]_output: 3a25c205
(Unnamed Layer* 835) [Shuffle]_output: 3a25c205
/control_model/control_model/input_blocks.1/input_blocks.1.1/transformer_blocks.0/attn2/to_out/to_out.0/MatMul_output_0: 3c19b4b3
(Unnamed Layer* 837) [Constant]_output: 3a7303ea
(Unnamed Layer* 838) [Shuffle]_output: 3a7303ea
/control_model/diffusion_model/input_blocks.1/input_blocks.1.1/transformer_blocks.0/attn2/to_out/to_out.0/Add_output_0: 3bb9ed9a
(Unnamed Layer* 840) [Constant]_output: 3a25c205
(Unnamed Layer* 841) [Shuffle]_output: 3a25c205
/control_model/control_model/input_blocks.1/input_blocks.1.1/transformer_blocks.0/attn2/to_out/to_out.0_1/MatMul_output_0: 3c1df46a
(Unnamed Layer* 843) [Shuffle]_output: 3a7303ea
/control_model/diffusion_model/input_blocks.1/input_blocks.1.1/transformer_blocks.0/attn2/to_out/to_out.0_1/Add_output_0: 3bbb3328
(Unnamed Layer* 845) [Constant]_output: 3a77cf57
(Unnamed Layer* 846) [Shuffle]_output: 3a77cf57
/control_model/control_model/input_blocks.1/input_blocks.1.1/transformer_blocks.0/attn2/to_out/to_out.0/Add_output_0: 3beb1217
/control_model/diffusion_model/input_blocks.1/input_blocks.1.1/transformer_blocks.0/Add_1_output_0: 3cbef1dc
(Unnamed Layer* 849) [Shuffle]_output: 3a77cf57
/control_model/control_model/input_blocks.1/input_blocks.1.1/transformer_blocks.0/attn2/to_out/to_out.0_1/Add_output_0: 3bfa101a
/control_model/diffusion_model/input_blocks.1/input_blocks.1.1/transformer_blocks.0_1/Add_output_0: 3cbdd563
/control_model/control_model/input_blocks.1/input_blocks.1.1/transformer_blocks.0/Add_1_output_0: 3c4062c6
/control_model/diffusion_model/input_blocks.1/input_blocks.1.1/transformer_blocks.0/norm3/LayerNormalization_output_0: 3cc694a6
/control_model/control_model/input_blocks.1/input_blocks.1.1/transformer_blocks.0_1/Add_output_0: 3c420c62
/control_model/diffusion_model/input_blocks.1/input_blocks.1.1/transformer_blocks.0/norm3_1/LayerNormalization_output_0: 3cc88d25
/control_model/control_model/input_blocks.1/input_blocks.1.1/transformer_blocks.0/norm3/LayerNormalization_output_0: 3c8c9d06
(Unnamed Layer* 867) [Constant]_output: 3b65cbb2
(Unnamed Layer* 868) [Shuffle]_output: 3b65cbb2
/control_model/diffusion_model/input_blocks.1/input_blocks.1.1/transformer_blocks.0/ff/net/net.0/proj/MatMul_output_0: 3d139c38
/control_model/control_model/input_blocks.1/input_blocks.1.1/transformer_blocks.0/norm3_1/LayerNormalization_output_0: 3c8c8948
(Unnamed Layer* 873) [Constant]_output: 3b65cbb2
(Unnamed Layer* 874) [Shuffle]_output: 3b65cbb2
/control_model/diffusion_model/input_blocks.1/input_blocks.1.1/transformer_blocks.0/ff/net/net.0/proj_1/MatMul_output_0: 3d1382cf
(Unnamed Layer* 876) [Constant]_output: 3b6e62a0
(Unnamed Layer* 877) [Shuffle]_output: 3b6e62a0
/control_model/control_model/input_blocks.1/input_blocks.1.1/transformer_blocks.0/ff/net/net.0/proj/MatMul_output_0: 3d0e2e26
(Unnamed Layer* 879) [Constant]_output: 3b218c5b
(Unnamed Layer* 880) [Shuffle]_output: 3b218c5b
/control_model/diffusion_model/input_blocks.1/input_blocks.1.1/transformer_blocks.0/ff/net/net.0/proj/Add_output_0: 3d1afde0
(Unnamed Layer* 882) [Constant]_output: 3b6e62a0
(Unnamed Layer* 883) [Shuffle]_output: 3b6e62a0
/control_model/control_model/input_blocks.1/input_blocks.1.1/transformer_blocks.0/ff/net/net.0/proj_1/MatMul_output_0: 3d0dfce2
(Unnamed Layer* 885) [Shuffle]_output: 3b218c5b
/control_model/diffusion_model/input_blocks.1/input_blocks.1.1/transformer_blocks.0/ff/net/net.0/proj_1/Add_output_0: 3d1ae476
(Unnamed Layer* 887) [Constant]_output: 3b161cfd
(Unnamed Layer* 888) [Shuffle]_output: 3b161cfd
/control_model/control_model/input_blocks.1/input_blocks.1.1/transformer_blocks.0/ff/net/net.0/proj/Add_output_0: 3d14d0dc
/control_model/diffusion_model/input_blocks.1/input_blocks.1.1/transformer_blocks.0/ff/net/net.0/Split_output_0: 3cdf052c
/control_model/diffusion_model/input_blocks.1/input_blocks.1.1/transformer_blocks.0/ff/net/net.0/Split_output_1: 3d276b2c
(Unnamed Layer* 892) [Shuffle]_output: 3b161cfd
/control_model/control_model/input_blocks.1/input_blocks.1.1/transformer_blocks.0/ff/net/net.0/proj_1/Add_output_0: 3d151b71
/control_model/diffusion_model/input_blocks.1/input_blocks.1.1/transformer_blocks.0/ff/net/net.0_1/Split_output_0: 3cdf4978
/control_model/diffusion_model/input_blocks.1/input_blocks.1.1/transformer_blocks.0/ff/net/net.0_1/Split_output_1: 3d274fb8
/control_model/control_model/input_blocks.1/input_blocks.1.1/transformer_blocks.0/ff/net/net.0/Split_output_0: 3cb4d105
/control_model/control_model/input_blocks.1/input_blocks.1.1/transformer_blocks.0/ff/net/net.0/Split_output_1: 3d1b4f6a
(Unnamed Layer* 899) [Shuffle]_output: 3c367d3d
/control_model/diffusion_model/input_blocks.1/input_blocks.1.1/transformer_blocks.0/ff/net/net.0/Div_output_0: 3cecc406
/control_model/control_model/input_blocks.1/input_blocks.1.1/transformer_blocks.0/ff/net/net.0_1/Split_output_0: 3cb5ae12
/control_model/control_model/input_blocks.1/input_blocks.1.1/transformer_blocks.0/ff/net/net.0_1/Split_output_1: 3d1af45d
(Unnamed Layer* 904) [Shuffle]_output: 3c367d3d
/control_model/diffusion_model/input_blocks.1/input_blocks.1.1/transformer_blocks.0/ff/net/net.0_1/Div_output_0: 3cec9d33
(Unnamed Layer* 907) [Shuffle]_output: 3c367d3d
/control_model/control_model/input_blocks.1/input_blocks.1.1/transformer_blocks.0/ff/net/net.0/Div_output_0: 3cdba44f
/control_model/diffusion_model/input_blocks.1/input_blocks.1.1/transformer_blocks.0/ff/net/net.0/Erf_output_0: 3c010a14
(Unnamed Layer* 911) [Shuffle]_output: 3c367d3d
/control_model/control_model/input_blocks.1/input_blocks.1.1/transformer_blocks.0/ff/net/net.0_1/Div_output_0: 3cdb2389
/control_model/diffusion_model/input_blocks.1/input_blocks.1.1/transformer_blocks.0/ff/net/net.0_1/Erf_output_0: 3c010a14
/control_model/control_model/input_blocks.1/input_blocks.1.1/transformer_blocks.0/ff/net/net.0/Erf_output_0: 3c021424
(Unnamed Layer* 916) [Shuffle]_output: 3c010a14
/control_model/diffusion_model/input_blocks.1/input_blocks.1.1/transformer_blocks.0/ff/net/net.0/Add_output_0: 3c810a14
/control_model/control_model/input_blocks.1/input_blocks.1.1/transformer_blocks.0/ff/net/net.0_1/Erf_output_0: 3c021423
(Unnamed Layer* 920) [Shuffle]_output: 3c010a14
/control_model/diffusion_model/input_blocks.1/input_blocks.1.1/transformer_blocks.0/ff/net/net.0_1/Add_output_0: 3c810a14
(Unnamed Layer* 923) [Shuffle]_output: 3c010a14
/control_model/control_model/input_blocks.1/input_blocks.1.1/transformer_blocks.0/ff/net/net.0/Add_output_0: 3c80f1ae
/control_model/diffusion_model/input_blocks.1/input_blocks.1.1/transformer_blocks.0/ff/net/net.0/Mul_output_0: 3cee3972
(Unnamed Layer* 927) [Shuffle]_output: 3c010a14
/control_model/control_model/input_blocks.1/input_blocks.1.1/transformer_blocks.0/ff/net/net.0_1/Add_output_0: 3c80f1af
/control_model/diffusion_model/input_blocks.1/input_blocks.1.1/transformer_blocks.0/ff/net/net.0_1/Mul_output_0: 3cedba31
/control_model/control_model/input_blocks.1/input_blocks.1.1/transformer_blocks.0/ff/net/net.0/Mul_output_0: 3d491ec3
(Unnamed Layer* 932) [Shuffle]_output: 3b810a14
/control_model/diffusion_model/input_blocks.1/input_blocks.1.1/transformer_blocks.0/ff/net/net.0/Mul_1_output_0: 3c6e3972
/control_model/control_model/input_blocks.1/input_blocks.1.1/transformer_blocks.0/ff/net/net.0_1/Mul_output_0: 3d49680c
(Unnamed Layer* 936) [Shuffle]_output: 3b810a14
/control_model/diffusion_model/input_blocks.1/input_blocks.1.1/transformer_blocks.0/ff/net/net.0_1/Mul_1_output_0: 3c6dba31
(Unnamed Layer* 939) [Shuffle]_output: 3b810a14
/control_model/control_model/input_blocks.1/input_blocks.1.1/transformer_blocks.0/ff/net/net.0/Mul_1_output_0: 3cc91ec3
/control_model/diffusion_model/input_blocks.1/input_blocks.1.1/transformer_blocks.0/ff/net/net.0/Mul_2_output_0: 3c2586fa
(Unnamed Layer* 943) [Shuffle]_output: 3b810a14
/control_model/control_model/input_blocks.1/input_blocks.1.1/transformer_blocks.0/ff/net/net.0_1/Mul_1_output_0: 3cc9680c
/control_model/diffusion_model/input_blocks.1/input_blocks.1.1/transformer_blocks.0/ff/net/net.0_1/Mul_2_output_0: 3c286c2f
/control_model/control_model/input_blocks.1/input_blocks.1.1/transformer_blocks.0/ff/net/net.0/Mul_2_output_0: 3cc6ded5
(Unnamed Layer* 947) [Constant]_output: 3b063f02
(Unnamed Layer* 948) [Shuffle]_output: 3b063f02
/control_model/diffusion_model/input_blocks.1/input_blocks.1.1/transformer_blocks.0/ff/net/net.2/MatMul_output_0: 3c91edda
/control_model/control_model/input_blocks.1/input_blocks.1.1/transformer_blocks.0/ff/net/net.0_1/Mul_2_output_0: 3cc6aecd
(Unnamed Layer* 951) [Constant]_output: 3b063f02
(Unnamed Layer* 952) [Shuffle]_output: 3b063f02
/control_model/diffusion_model/input_blocks.1/input_blocks.1.1/transformer_blocks.0/ff/net/net.2_1/MatMul_output_0: 3c9457f4
(Unnamed Layer* 954) [Constant]_output: 3b06ab28
(Unnamed Layer* 955) [Shuffle]_output: 3b06ab28
/control_model/control_model/input_blocks.1/input_blocks.1.1/transformer_blocks.0/ff/net/net.2/MatMul_output_0: 3ce8a015
(Unnamed Layer* 957) [Constant]_output: 3a5e1f23
(Unnamed Layer* 958) [Shuffle]_output: 3a5e1f23
/control_model/diffusion_model/input_blocks.1/input_blocks.1.1/transformer_blocks.0/ff/net/net.2/Add_output_0: 3ca231b3
(Unnamed Layer* 960) [Constant]_output: 3b06ab28
(Unnamed Layer* 961) [Shuffle]_output: 3b06ab28
/control_model/control_model/input_blocks.1/input_blocks.1.1/transformer_blocks.0/ff/net/net.2_1/MatMul_output_0: 3ce891fd
(Unnamed Layer* 963) [Shuffle]_output: 3a5e1f23
/control_model/diffusion_model/input_blocks.1/input_blocks.1.1/transformer_blocks.0/ff/net/net.2_1/Add_output_0: 3ca10641
(Unnamed Layer* 965) [Constant]_output: 3a53fb1d
(Unnamed Layer* 966) [Shuffle]_output: 3a53fb1d
/control_model/control_model/input_blocks.1/input_blocks.1.1/transformer_blocks.0/ff/net/net.2/Add_output_0: 3ce8a6d7
/control_model/diffusion_model/input_blocks.1/input_blocks.1.1/transformer_blocks.0/Add_2_output_0: 3c7c41f9
(Unnamed Layer* 969) [Shuffle]_output: 3a53fb1d
/control_model/control_model/input_blocks.1/input_blocks.1.1/transformer_blocks.0/ff/net/net.2_1/Add_output_0: 3ce95747
/control_model/diffusion_model/input_blocks.1/input_blocks.1.1/transformer_blocks.0_1/Add_1_output_0: 3c76a7eb
/control_model/control_model/input_blocks.1/input_blocks.1.1/transformer_blocks.0/Add_2_output_0: 3cfeb76c
/control_model/diffusion_model/input_blocks.1/input_blocks.1.1/Reshape_2_output_0: 3c7c41f9
/control_model/control_model/input_blocks.1/input_blocks.1.1/transformer_blocks.0_1/Add_1_output_0: 3d00b7f0
/control_model/diffusion_model/input_blocks.1/input_blocks.1.1_1/Reshape_output_0: 3c76a7eb
/control_model/control_model/input_blocks.1/input_blocks.1.1/Reshape_2_output_0: 3cfeb76c
/control_model/diffusion_model/input_blocks.1/input_blocks.1.1/Transpose_1_output_0: 3c7c41f9
/control_model/control_model/input_blocks.1/input_blocks.1.1_1/Reshape_output_0: 3d00b7f0
/control_model/diffusion_model/input_blocks.1/input_blocks.1.1_1/Transpose_output_0: 3c76a7eb
/control_model/control_model/input_blocks.1/input_blocks.1.1/Transpose_1_output_0: 3cfeb76c
/control_model/control_model/input_blocks.1/input_blocks.1.1_1/Transpose_output_0: 3d00b7f0
/control_model/diffusion_model/input_blocks.1/input_blocks.1.1/proj_out/Conv_output_0: 3c6a6be5
/control_model/diffusion_model/input_blocks.1/input_blocks.1.1/proj_out_1/Conv_output_0: 3c6f1d71
/control_model/control_model/input_blocks.1/input_blocks.1.1/proj_out/Conv_output_0: 3d01e5d2
/control_model/diffusion_model/input_blocks.1/input_blocks.1.1/Add_output_0: 3d3fe8bd
/control_model/control_model/input_blocks.1/input_blocks.1.1/proj_out_1/Conv_output_0: 3d01af7f
/control_model/diffusion_model/input_blocks.1/input_blocks.1.1_1/Add_output_0: 3d40ee8d
/control_model/control_model/input_blocks.1/input_blocks.1.1/Add_output_0: 3d84d203
/control_model/diffusion_model/input_blocks.2/input_blocks.2.0/in_layers/in_layers.0/Reshape_output_0: 3d3fe8bd
/control_model/control_model/input_blocks.1/input_blocks.1.1_1/Add_output_0: 3d822842
/control_model/diffusion_model/input_blocks.2/input_blocks.2.0/in_layers/in_layers.0_1/Reshape_output_0: 3d40ee8d
/control_model/control_model/zero_convs.1/zero_convs.1.0/Conv_output_0: 3c2f4653
/control_model/control_model/input_blocks.2/input_blocks.2.0/in_layers/in_layers.0/Reshape_output_0: 3d84d203
(Unnamed Layer* 998) [Shuffle]_output: 3d3fe8bd
(Unnamed Layer* 999) [PluginV2DynamicExt]_output: 3d63893e
/control_model/diffusion_model/input_blocks.2/input_blocks.2.0/in_layers/in_layers.0/InstanceNormalization_output_0: 3d63893e
/control_model/control_model/zero_convs.1/zero_convs.1.0_1/Conv_output_0: 3c2e4718
/control_model/control_model/input_blocks.2/input_blocks.2.0/in_layers/in_layers.0_1/Reshape_output_0: 3d822842
(Unnamed Layer* 1003) [Shuffle]_output: 3d40ee8d
(Unnamed Layer* 1004) [PluginV2DynamicExt]_output: 3d61c825
/control_model/diffusion_model/input_blocks.2/input_blocks.2.0/in_layers/in_layers.0_1/InstanceNormalization_output_0: 3d61c825
(Unnamed Layer* 1006) [Shuffle]_output: 3d84d203
(Unnamed Layer* 1007) [PluginV2DynamicExt]_output: 3d36a44a
/control_model/control_model/input_blocks.2/input_blocks.2.0/in_layers/in_layers.0/InstanceNormalization_output_0: 3d36a44a
/control_model/diffusion_model/input_blocks.2/input_blocks.2.0/in_layers/in_layers.0/Reshape_1_output_0: 3d63893e
/control_model/diffusion_model/Add_11_output_0: 3d51ff37
(Unnamed Layer* 1011) [Shuffle]_output: 3d822842
(Unnamed Layer* 1012) [PluginV2DynamicExt]_output: 3d346ed2
/control_model/control_model/input_blocks.2/input_blocks.2.0/in_layers/in_layers.0_1/InstanceNormalization_output_0: 3d346ed2
/control_model/diffusion_model/input_blocks.2/input_blocks.2.0/in_layers/in_layers.0_1/Reshape_1_output_0: 3d61c825
/control_model/diffusion_model_1/Add_11_output_0: 3d517e1a
/control_model/control_model/input_blocks.2/input_blocks.2.0/in_layers/in_layers.0/Reshape_1_output_0: 3d36a44a
(Unnamed Layer* 1017) [Constant]_output: 3bced070
(Unnamed Layer* 1018) [Shuffle]_output: 3bced070
/control_model/diffusion_model/input_blocks.2/input_blocks.2.0/in_layers/in_layers.0/Mul_output_0: 3cc54123
/control_model/control_model/input_blocks.2/input_blocks.2.0/in_layers/in_layers.0_1/Reshape_1_output_0: 3d346ed2
(Unnamed Layer* 1021) [Constant]_output: 3bced070
(Unnamed Layer* 1022) [Shuffle]_output: 3bced070
/control_model/diffusion_model/input_blocks.2/input_blocks.2.0/in_layers/in_layers.0_1/Mul_output_0: 3cc4d545
(Unnamed Layer* 1024) [Constant]_output: 3bca50ad
(Unnamed Layer* 1025) [Shuffle]_output: 3bca50ad
/control_model/control_model/input_blocks.2/input_blocks.2.0/in_layers/in_layers.0/Mul_output_0: 3cb5734e
(Unnamed Layer* 1027) [Constant]_output: 3af89105
(Unnamed Layer* 1028) [Shuffle]_output: 3af89105
/control_model/diffusion_model/input_blocks.2/input_blocks.2.0/in_layers/in_layers.0/Add_output_0: 3cc152ff
(Unnamed Layer* 1030) [Constant]_output: 3bca50ad
(Unnamed Layer* 1031) [Shuffle]_output: 3bca50ad
/control_model/control_model/input_blocks.2/input_blocks.2.0/in_layers/in_layers.0_1/Mul_output_0: 3cb648c1
(Unnamed Layer* 1033) [Constant]_output: 3af89105
(Unnamed Layer* 1034) [Shuffle]_output: 3af89105
/control_model/diffusion_model/input_blocks.2/input_blocks.2.0/in_layers/in_layers.0_1/Add_output_0: 3cc230f8
(Unnamed Layer* 1036) [Constant]_output: 3af88499
(Unnamed Layer* 1037) [Shuffle]_output: 3af88499
/control_model/control_model/input_blocks.2/input_blocks.2.0/in_layers/in_layers.0/Add_output_0: 3cae3249
/control_model/diffusion_model/input_blocks.2/input_blocks.2.0/in_layers/in_layers.1/Sigmoid_output_0: 3be89e61
(Unnamed Layer* 1040) [Constant]_output: 3af88499
(Unnamed Layer* 1041) [Shuffle]_output: 3af88499
/control_model/control_model/input_blocks.2/input_blocks.2.0/in_layers/in_layers.0_1/Add_output_0: 3cae66ca
/control_model/diffusion_model/input_blocks.2/input_blocks.2.0/in_layers/in_layers.1_1/Sigmoid_output_0: 3be8bfcf
/control_model/control_model/input_blocks.2/input_blocks.2.0/in_layers/in_layers.1/Sigmoid_output_0: 3bde95fe
/control_model/diffusion_model/input_blocks.2/input_blocks.2.0/in_layers/in_layers.1/Mul_output_0: 3c247a55
/control_model/control_model/input_blocks.2/input_blocks.2.0/in_layers/in_layers.1_1/Sigmoid_output_0: 3bdeb4e2
/control_model/diffusion_model/input_blocks.2/input_blocks.2.0/in_layers/in_layers.1_1/Mul_output_0: 3c252c30
/control_model/control_model/input_blocks.2/input_blocks.2.0/in_layers/in_layers.1/Mul_output_0: 3c31c89b
/control_model/diffusion_model/input_blocks.2/input_blocks.2.0/in_layers/in_layers.2/Conv_output_0: 3cd46db1
/control_model/control_model/input_blocks.2/input_blocks.2.0/in_layers/in_layers.1_1/Mul_output_0: 3c313d16
/control_model/diffusion_model/input_blocks.2/input_blocks.2.0/in_layers/in_layers.2_1/Conv_output_0: 3cd2888a
/control_model/control_model/input_blocks.2/input_blocks.2.0/in_layers/in_layers.2/Conv_output_0: 3c8e346c
/control_model/diffusion_model/input_blocks.2/input_blocks.2.0/Add_output_0: 3d1a576e
/control_model/control_model/input_blocks.2/input_blocks.2.0/in_layers/in_layers.2_1/Conv_output_0: 3c8b084c
/control_model/diffusion_model/input_blocks.2/input_blocks.2.0_1/Add_output_0: 3d189c42
/control_model/control_model/input_blocks.2/input_blocks.2.0/Add_output_0: 3ca9f844
/control_model/diffusion_model/input_blocks.2/input_blocks.2.0/out_layers/out_layers.0/Reshape_output_0: 3d1a576e
/control_model/control_model/input_blocks.2/input_blocks.2.0_1/Add_output_0: 3ca924fe
/control_model/diffusion_model/input_blocks.2/input_blocks.2.0/out_layers/out_layers.0_1/Reshape_output_0: 3d189c42
/control_model/control_model/input_blocks.2/input_blocks.2.0/out_layers/out_layers.0/Reshape_output_0: 3ca9f844
(Unnamed Layer* 1061) [Shuffle]_output: 3d1a576e
(Unnamed Layer* 1062) [PluginV2DynamicExt]_output: 3d5088f2
/control_model/diffusion_model/input_blocks.2/input_blocks.2.0/out_layers/out_layers.0/InstanceNormalization_output_0: 3d5088f2
/control_model/control_model/input_blocks.2/input_blocks.2.0/out_layers/out_layers.0_1/Reshape_output_0: 3ca924fe
(Unnamed Layer* 1065) [Shuffle]_output: 3d189c42
(Unnamed Layer* 1066) [PluginV2DynamicExt]_output: 3d50f128
/control_model/diffusion_model/input_blocks.2/input_blocks.2.0/out_layers/out_layers.0_1/InstanceNormalization_output_0: 3d50f128
(Unnamed Layer* 1068) [Shuffle]_output: 3ca9f844
(Unnamed Layer* 1069) [PluginV2DynamicExt]_output: 3d250ef2
/control_model/control_model/input_blocks.2/input_blocks.2.0/out_layers/out_layers.0/InstanceNormalization_output_0: 3d250ef2
/control_model/diffusion_model/input_blocks.2/input_blocks.2.0/out_layers/out_layers.0/Reshape_1_output_0: 3d5088f2
(Unnamed Layer* 1072) [Shuffle]_output: 3ca924fe
(Unnamed Layer* 1073) [PluginV2DynamicExt]_output: 3d223535
/control_model/control_model/input_blocks.2/input_blocks.2.0/out_layers/out_layers.0_1/InstanceNormalization_output_0: 3d223535
/control_model/diffusion_model/input_blocks.2/input_blocks.2.0/out_layers/out_layers.0_1/Reshape_1_output_0: 3d50f128
/control_model/control_model/input_blocks.2/input_blocks.2.0/out_layers/out_layers.0/Reshape_1_output_0: 3d250ef2
(Unnamed Layer* 1077) [Constant]_output: 3c1117d3
(Unnamed Layer* 1078) [Shuffle]_output: 3c1117d3
/control_model/diffusion_model/input_blocks.2/input_blocks.2.0/out_layers/out_layers.0/Mul_output_0: 3d14025c
/control_model/control_model/input_blocks.2/input_blocks.2.0/out_layers/out_layers.0_1/Reshape_1_output_0: 3d223535
(Unnamed Layer* 1081) [Constant]_output: 3c1117d3
(Unnamed Layer* 1082) [Shuffle]_output: 3c1117d3
/control_model/diffusion_model/input_blocks.2/input_blocks.2.0/out_layers/out_layers.0_1/Mul_output_0: 3d14c454
(Unnamed Layer* 1084) [Constant]_output: 3c0cadff
(Unnamed Layer* 1085) [Shuffle]_output: 3c0cadff
/control_model/control_model/input_blocks.2/input_blocks.2.0/out_layers/out_layers.0/Mul_output_0: 3cf7c90e
(Unnamed Layer* 1087) [Constant]_output: 3b6bcca1
(Unnamed Layer* 1088) [Shuffle]_output: 3b6bcca1
/control_model/diffusion_model/input_blocks.2/input_blocks.2.0/out_layers/out_layers.0/Add_output_0: 3d209dcb
(Unnamed Layer* 1090) [Constant]_output: 3c0cadff
(Unnamed Layer* 1091) [Shuffle]_output: 3c0cadff
/control_model/control_model/input_blocks.2/input_blocks.2.0/out_layers/out_layers.0_1/Mul_output_0: 3cf5c3f3
(Unnamed Layer* 1093) [Constant]_output: 3b6bcca1
(Unnamed Layer* 1094) [Shuffle]_output: 3b6bcca1
/control_model/diffusion_model/input_blocks.2/input_blocks.2.0/out_layers/out_layers.0_1/Add_output_0: 3d204be5
(Unnamed Layer* 1096) [Constant]_output: 3b4d0e44
(Unnamed Layer* 1097) [Shuffle]_output: 3b4d0e44
/control_model/control_model/input_blocks.2/input_blocks.2.0/out_layers/out_layers.0/Add_output_0: 3d05c996
/control_model/diffusion_model/input_blocks.2/input_blocks.2.0/out_layers/out_layers.1/Sigmoid_output_0: 3bf2be19
(Unnamed Layer* 1100) [Constant]_output: 3b4d0e44
(Unnamed Layer* 1101) [Shuffle]_output: 3b4d0e44
/control_model/control_model/input_blocks.2/input_blocks.2.0/out_layers/out_layers.0_1/Add_output_0: 3d0510de
/control_model/diffusion_model/input_blocks.2/input_blocks.2.0/out_layers/out_layers.1_1/Sigmoid_output_0: 3bf23da7
/control_model/control_model/input_blocks.2/input_blocks.2.0/out_layers/out_layers.1/Sigmoid_output_0: 3bf064f4
/control_model/diffusion_model/input_blocks.2/input_blocks.2.0/out_layers/out_layers.1/Mul_output_0: 3c535659
/control_model/control_model/input_blocks.2/input_blocks.2.0/out_layers/out_layers.1_1/Sigmoid_output_0: 3bf04631
/control_model/diffusion_model/input_blocks.2/input_blocks.2.0/out_layers/out_layers.1_1/Mul_output_0: 3c5338ae
/control_model/control_model/input_blocks.2/input_blocks.2.0/out_layers/out_layers.1/Mul_output_0: 3c145f91
/control_model/diffusion_model/input_blocks.2/input_blocks.2.0/out_layers/out_layers.3/Conv_output_0: 3ca3b153
/control_model/control_model/input_blocks.2/input_blocks.2.0/out_layers/out_layers.1_1/Mul_output_0: 3c38e773
/control_model/diffusion_model/input_blocks.2/input_blocks.2.0/out_layers/out_layers.3_1/Conv_output_0: 3ca4ded1
/control_model/control_model/input_blocks.2/input_blocks.2.0/out_layers/out_layers.3/Conv_output_0: 3cbd68fc
/control_model/diffusion_model/input_blocks.2/input_blocks.2.0/Add_1_output_0: 3d5aa935
/control_model/control_model/input_blocks.2/input_blocks.2.0/out_layers/out_layers.3_1/Conv_output_0: 3cbe2349
/control_model/diffusion_model/input_blocks.2/input_blocks.2.0_1/Add_1_output_0: 3d5a4f3e
/control_model/control_model/input_blocks.2/input_blocks.2.0/Add_1_output_0: 3d86c0cf
/control_model/diffusion_model/input_blocks.2/input_blocks.2.1/norm/Reshape_output_0: 3d5aa935
/control_model/control_model/input_blocks.2/input_blocks.2.0_1/Add_1_output_0: 3d881bd0
/control_model/diffusion_model/input_blocks.2/input_blocks.2.1/norm_1/Reshape_output_0: 3d5a4f3e
/control_model/control_model/input_blocks.2/input_blocks.2.1/norm/Reshape_output_0: 3d86c0cf
(Unnamed Layer* 1121) [Shuffle]_output: 3d5aa935
(Unnamed Layer* 1122) [PluginV2DynamicExt]_output: 3d697105
/control_model/diffusion_model/input_blocks.2/input_blocks.2.1/norm/InstanceNormalization_output_0: 3d697105
/control_model/control_model/input_blocks.2/input_blocks.2.1/norm_1/Reshape_output_0: 3d881bd0
(Unnamed Layer* 1125) [Shuffle]_output: 3d5a4f3e
(Unnamed Layer* 1126) [PluginV2DynamicExt]_output: 3d6a744c
/control_model/diffusion_model/input_blocks.2/input_blocks.2.1/norm_1/InstanceNormalization_output_0: 3d6a744c
(Unnamed Layer* 1128) [Shuffle]_output: 3d86c0cf
(Unnamed Layer* 1129) [PluginV2DynamicExt]_output: 3d4734c1
/control_model/control_model/input_blocks.2/input_blocks.2.1/norm/InstanceNormalization_output_0: 3d4734c1
/control_model/diffusion_model/input_blocks.2/input_blocks.2.1/norm/Reshape_1_output_0: 3d697105
(Unnamed Layer* 1132) [Shuffle]_output: 3d881bd0
(Unnamed Layer* 1133) [PluginV2DynamicExt]_output: 3d45bd9f
/control_model/control_model/input_blocks.2/input_blocks.2.1/norm_1/InstanceNormalization_output_0: 3d45bd9f
/control_model/diffusion_model/input_blocks.2/input_blocks.2.1/norm_1/Reshape_1_output_0: 3d6a744c
/control_model/control_model/input_blocks.2/input_blocks.2.1/norm/Reshape_1_output_0: 3d4734c1
(Unnamed Layer* 1137) [Constant]_output: 3b96aac1
(Unnamed Layer* 1138) [Shuffle]_output: 3b96aac1
/control_model/diffusion_model/input_blocks.2/input_blocks.2.1/norm/Mul_output_0: 3c8bbfd5
/control_model/control_model/input_blocks.2/input_blocks.2.1/norm_1/Reshape_1_output_0: 3d45bd9f
(Unnamed Layer* 1141) [Constant]_output: 3b96aac1
(Unnamed Layer* 1142) [Shuffle]_output: 3b96aac1
/control_model/diffusion_model/input_blocks.2/input_blocks.2.1/norm_1/Mul_output_0: 3c8be34c
(Unnamed Layer* 1144) [Constant]_output: 3b8f7503
(Unnamed Layer* 1145) [Shuffle]_output: 3b8f7503
/control_model/control_model/input_blocks.2/input_blocks.2.1/norm/Mul_output_0: 3c7411c7
(Unnamed Layer* 1147) [Constant]_output: 3ab0aef5
(Unnamed Layer* 1148) [Shuffle]_output: 3ab0aef5
/control_model/diffusion_model/input_blocks.2/input_blocks.2.1/norm/Add_output_0: 3c8bfa6a
(Unnamed Layer* 1150) [Constant]_output: 3b8f7503
(Unnamed Layer* 1151) [Shuffle]_output: 3b8f7503
/control_model/control_model/input_blocks.2/input_blocks.2.1/norm_1/Mul_output_0: 3c744352
(Unnamed Layer* 1153) [Constant]_output: 3ab0aef5
(Unnamed Layer* 1154) [Shuffle]_output: 3ab0aef5
/control_model/diffusion_model/input_blocks.2/input_blocks.2.1/norm_1/Add_output_0: 3c8bf5c9
(Unnamed Layer* 1156) [Constant]_output: 3ab03b01
(Unnamed Layer* 1157) [Shuffle]_output: 3ab03b01
